{"lem": 12164, "Sah": 21210, "ĠSpend": 39860, "ĠNav": 5722, "ĠBasel": 40539, "Ġem": 649, "Ġcheerful": 40590, "Ġpir": 16052, "Ġblockage": 28560, "ĠQueens": 17171, "ĠSiddh": 48955, "ĠAmong": 6646, "Lewis": 45000, "fold": 7177, "Ġintegrates": 30823, "aced": 2568, "ĠKyrgyz": 45412, "pot": 12481, "disc": 12367, "Pal": 20529, "linux": 40397, "Ġmysteries": 13251, "ĠAutomated": 43870, "Ġpuzzles": 15909, "itors": 5585, "anum": 48415, "ĠMant": 32917, "seeking": 34304, "Ġaccountability": 12329, "ĠPutting": 32181, "store": 9887, "Ġmonetary": 14515, "enne": 25632, "withstanding": 29838, "ĠPLA": 21897, "sharing": 28800, "ĠChan": 25336, "ĠSmile": 46368, "Ġregisters": 24057, "Ġstarters": 30733, "Ġcess": 25548, "ulse": 28540, "Ġammon": 16069, "expr": 14554, "Ġprogresses": 21685, "Ġpurity": 19847, "Ġpetitions": 39271, "Pressure": 45410, "Ġexerted": 29732, "ĠRain": 15143, "ĠSem": 11719, "Ġcommens": 43731, "overty": 19073, "GI": 18480, "Ġwilliam": 45110, "Ġbatch": 7717, "Ġconstitu": 13267, "Ġthreading": 27509, "ogeneity": 26662, "Ġprehistoric": 21086, "Ġstacked": 27875, "topl": 23462, "ĠBulletin": 23702, "Ġforged": 32973, "ĠHTML": 13640, "GPU": 44554, "Ġpowders": 35551, "Ġphotos": 6469, "checking": 40296, "Ġtownships": 48211, "Ġcrit": 1634, "ĠPlantation": 46023, "ĠPrad": 20393, "wali": 30264, "ĠLip": 24810, "Ġdict": 5314, "ĠResurrection": 42825, "dem": 6925, "InterfaceSelection": 36902, "ĠHousehold": 31428, "ĠPerhaps": 9579, "OUT": 19546, "mt": 13059, "ĠMcD": 44528, "å¥": 48392, "Ġreimag": 43016, "ĠWas": 13580, "Ġliqu": 4652, "ĠAppalachian": 33010, "ĠLau": 46948, "sf": 43548, "ĠThen": 3875, "Ind": 5080, "acles": 7731, "ĠPipe": 43551, "ĠAstronomical": 36401, "CH": 5229, "ĠTType": 48648, "Ġapprox": 4031, "Ġdifference": 3193, "Events": 42727, "ĠCountries": 21384, "work": 1637, "ĠTraditionally": 26216, "Ġtemple": 8777, "onson": 46319, "ĠWon": 42963, "Ġneighbors": 10645, "jud": 9414, "Ġrelates": 12776, "Ġcommittees": 18765, "Ġpend": 25171, "Ġdemise": 26356, "Ġcontractual": 41070, "ĠMelan": 35412, "Ġoutside": 2856, "Ġsut": 36007, "Ġrevise": 25574, "Ġecosystems": 8133, "loads": 12936, "Ġexpel": 41793, "spers": 42383, "ivel": 42759, "ĠUTC": 31493, "ĠAccount": 11972, "Ġimmunization": 28383, "anim": 22709, "ĠAmos": 43174, "antage": 41673, "ĠPropag": 32088, "Gly": 49058, "Ġbliss": 39926, "Ġbalancing": 14412, "odies": 3248, "Ġnonetheless": 23237, "Ġhandmade": 31645, "Ġcre": 935, "Ġsought": 7045, "Ġsuperpowers": 42064, "Ġcommemorate": 26206, "ĠLily": 14176, "ZE": 16722, "Ġstencil": 48963, "Ġdelete": 13229, "ĠWik": 20176, "Ġpand": 6402, "Tow": 39816, "Life": 11780, "COMM": 29267, "Ġsteer": 27341, "Ġintentional": 18158, "Ġmonthly": 11697, "Ġwasp": 37567, "ocation": 6658, "arsh": 5555, "ÏĮ": 36180, "Ġcrying": 22860, "verty": 5801, "ĠStrange": 47604, "Ġrefres": 20081, "Ġdrinkers": 40317, "Ġ).": 15165, "verage": 2252, "Ġvm": 32348, "Ġheaven": 10419, "Ġthr": 3811, "Ġegal": 34346, "Ġprud": 30154, "ĠAlert": 32428, "arctic": 45281, "Reset": 44526, "Ġgas": 2811, "ĠPURPOSE": 40906, "ĠVietnamese": 20337, "Ġwed": 13089, "ĠMAT": 26658, "ĠDin": 22541, "Ġblueprint": 22490, "Gate": 29038, "ĠBub": 36567, "chs": 42076, "ĠConnect": 8847, "ĠAMD": 32820, "Ġlandfall": 47294, "ARN": 45739, "Ġeighty": 30085, "berty": 22740, "ĠKak": 47928, "Ġdep": 1060, "Ġchapel": 22748, "Ġvillagers": 22965, "Ġbasketball": 18120, "Ġoverflow": 24194, "opon": 47833, "ĠAns": 40242, "comput": 10810, "riam": 36389, "Ð·": 23035, "Ġeditorial": 18440, "ĠWater": 4643, "asc": 2178, "Ġhon": 3678, "ĠTerritories": 35422, "quick": 38478, "iaz": 28990, "Ġcris": 5413, "Ġannoying": 27267, "ĠWear": 22556, "Ġpresentation": 6709, "Ġmanga": 33333, "Ġschoolers": 32007, "osing": 3226, "rach": 40377, "-----------------------------------": 41357, "Ġstorage": 4759, "uilding": 5385, "ĠGib": 17129, "Humans": 33349, "Ïĥ": 18751, "Ġdegradation": 12140, "Ġdressing": 20715, "Ġpeppers": 19239, "arthy": 29437, "ĠBeautifulSoup": 43107, "ĠFred": 10373, "Ġlodging": 42369, "Ġsemantic": 23864, "Ġluck": 8905, "Keep": 15939, "Ġtranscending": 36271, "Ġvenue": 24692, "Ġdownloaded": 20770, "Phase": 33238, "ĠMinisters": 34641, "Bay": 27451, "ĠCornelius": 48692, "Ġcour": 1263, "icos": 48096, "Ġstaircase": 40981, "keeper": 21306, "Ġcredentials": 18814, "Ġdiaries": 31727, "ĠPb": 47443, "Api": 27846, "ulo": 34404, "ĠLu": 12196, "Ġcrocod": 26068, "aser": 6589, "[:": 5240, "ĠYu": 25333, "Ġdragon": 17422, "hire": 9550, "uptools": 37890, "Ġknowledge": 1967, "Ġinhabited": 18649, "Ġinvolves": 3445, "Ġprize": 17292, "Ġvary": 4341, "Ġfirefighters": 30436, "Ġpapill": 35628, "ania": 15571, "obo": 44284, "Ġcuriously": 42348, "Password": 32611, "Ġbl": 754, "hov": 26392, "Ġtweak": 47615, "Glob": 47715, "Ġpriceless": 44835, "ĠBreath": 45746, "Agent": 32150, "Ġresidence": 14096, "ĠNeeds": 23238, "Ġreversible": 32215, "ĠExam": 17884, "))[": 46165, "ĠPras": 48478, "Ġvariables": 6031, "pans": 43508, "Ġthose": 967, "Ġcrowding": 48588, "Ġwoodpec": 40972, "Ġspeeds": 10870, "ĠSuccessful": 23637, "Ġretrieval": 25880, "Ġaudits": 36184, "Ġnano": 27228, "Ġtresp": 46929, "experiment": 27762, "Ġwires": 13590, "pitched": 48491, "Ġapprehens": 29934, "Ġretiring": 42952, "ĠEle": 14913, "roll": 2197, "eliac": 22151, "Ġromances": 31851, "icals": 25700, "ONE": 19832, "omal": 11496, "enter": 9294, "ĠOw": 14284, "Even": 8155, "Ġcommemoration": 37708, "Ġcrypto": 31179, "Ġinbox": 34531, "ĠEmployees": 35880, "{\"": 39428, "Ġpumpkins": 40575, "Ġresentment": 30232, "Cost": 22720, "Ġbombings": 46393, "ĠChester": 32295, "ĠFrom": 3300, "Ġaccurate": 5161, "Ġcombustion": 15282, "ĠNeptune": 30461, "Ġhybrid": 10439, "Ġselective": 16273, "Ġpeaked": 38237, "erential": 26244, "Institute": 48503, "yaml": 23389, "Youth": 48573, "Ġsigning": 17615, "ĠFocus": 10965, "Ġrevealing": 12352, "Ġacknowledged": 14494, "building": 13161, "Ġpigs": 14668, "Ġexcavation": 23105, "ĠClasses": 32575, "Ġwastewater": 16429, "Ġhumane": 31167, "star": 16079, "ĠQuantum": 25029, "uclear": 12371, "à¸": 10283, "Ġind": 641, "ĠErie": 29216, "Ġsignalling": 37619, "yroid": 7726, "uana": 14375, "Ġlavender": 32577, "Ġgraduates": 18019, "Ġturmoil": 23558, "Ġont": 24237, "ĠHER": 41947, "ĠLucy": 19388, "cies": 11298, "Â¢": 26387, "Ġresting": 15419, "vec": 16849, "alls": 3255, "ĠCourtesy": 43468, "Ġdestined": 26097, "Of": 6228, "Ġupdate": 6850, "Ġsuddenly": 8922, "Ġdystop": 35293, "Ġcoastlines": 39691, "Wet": 48135, "Ă": 192, "amental": 4465, "Ġsuppressed": 22859, "Ġwashes": 39678, "cemic": 25761, "ĠAlan": 18660, "orld": 1886, "itic": 11188, "Ġhel": 704, "closing": 28061, "mington": 47360, "Ġitchy": 28276, "ĠQatar": 39989, "Ġimmediate": 6723, "Ġpredisposed": 48305, "Ġimbal": 12132, "Ġpathologies": 46427, "Ġreass": 14185, "Ġadvoc": 4760, "Ġpalsy": 30646, "Ġcleanse": 35684, "Ġoppressed": 27571, "ĠFormal": 36770, "Ġweathered": 47805, "Sum": 13764, "Ġsess": 29442, "Ġbillion": 4533, "čĊčĊ": 18682, "Ġvolt": 23431, "Ġjohn": 40933, "Ġrepell": 26036, "Ġspl": 9452, "Ġfleshy": 43177, "!,": 45495, "affin": 43380, "Ġtransg": 28268, "Ġfolded": 24501, "Ġunborn": 36390, "an": 276, "aphyloc": 30561, "HF": 31707, "Ġowed": 30178, "Ġbombs": 20356, "itably": 17256, ")(": 14502, "ben": 12446, "Ġadventures": 11470, "Fold": 46904, "ĠBattery": 28064, "absol": 28792, "Ġdemographic": 15212, "Ġh": 294, "ĠFa": 11881, "Ġundeniable": 39306, "Ġaccompanying": 16799, "Ġuniforms": 28003, "ĠBavaria": 43276, "saved": 38417, "ĠDrive": 20863, "Helper": 32787, "Call": 12800, "Ġferry": 31936, "Ġreshape": 31491, "Invalid": 21282, "bear": 32011, "Ġaccountable": 18362, "SS": 6690, "Ġfreight": 26425, "ĠGos": 46265, "Ġadministrators": 15241, "Ġpurification": 24261, "Ġapostle": 40577, "ĠMartha": 22760, "Ġsignific": 1364, "Ġaisle": 40701, "esterone": 32385, "Ġconserving": 25862, "Ġka": 30019, "ĠAthenian": 42370, "Ġasp": 7278, "Archae": 37318, "Ġmelanoma": 23445, "NotFound": 29791, "ĠMon": 3692, "Ġelsewhere": 8888, "ĠAunt": 44864, "pitch": 43299, "Reg": 7969, "Ġmaiden": 38336, "Ġcatalogue": 29440, "Ġpermiss": 26954, "Ġmesothelioma": 30875, "Url": 33319, "functioning": 48089, "Ġcarried": 4891, "Ġseparating": 19873, "ĠMeasuring": 29464, "Ġcollab": 3120, "Ġknow": 699, "Ġsatirical": 44962, "Ġfacets": 19151, "note": 12473, "Ġrapport": 29309, "ĠEcosystem": 26143, "Ġinnovative": 5635, "ĠColoring": 42954, "ĠMare": 44142, "Ġhotels": 21143, "Ġcelebrate": 8375, "virtual": 30973, "School": 17363, "Ġoxidized": 43712, "Ġproximal": 38166, "Ġlatest": 6008, "Ġhomestead": 33097, "named": 12336, "Ġdisapp": 5668, "Ġaround": 1130, "ĠLas": 24174, "Ġcloves": 32420, "åŃ": 18753, "ĠTem": 6957, "acio": 43831, "ĠWinston": 32165, "ĠMIT": 13873, "Ġaltering": 19943, "INGS": 27727, "Ġconfident": 6580, "ĠPoll": 13521, "ilet": 48117, "ding": 3443, "ĠHamilton": 16233, "Ġinvoked": 30307, "Ġsolvents": 30202, "listed": 33314, "Lib": 22172, "Ġhair": 4416, "ĠCareers": 46893, "ĠBib": 28334, "ĠProphets": 44061, "Ġmanufacturers": 9109, "ĠAttributes": 36579, "<row_1_col_1>": 49153, "<|reserved_special_token_83|>": 49274, "ĠImag": 25451, "Ġappropri": 2963, "ranial": 35196, "uag": 48349, "forward": 10403, "Ġreinforces": 25313, "________________________________": 42117, "<|reserved_special_token_41|>": 49232, "ĠCret": 26431, "urities": 20994, "Ġoutbreaks": 15087, "Ġwonder": 4558, "Ġrugs": 38265, "Ġsilent": 13879, "Cover": 38456, "Ġfans": 12490, "ĠNorris": 48043, "kg": 11372, "fit": 5494, "Ġconnects": 13766, "Ġter": 1733, "Ġplank": 25668, "Tel": 32511, "facts": 24504, "midt": 27199, "Ġblessing": 20963, "aggressions": 41987, "Ġmunicipal": 16320, "Ġinterests": 4694, "ĠSyntax": 48591, "Sam": 22750, "Ġarranging": 27036, "Ġunderground": 10596, "ertical": 27346, "dc": 20969, "nis": 29027, "Ġhorrors": 33893, "Ġpremature": 13924, "ĠMaintaining": 28968, "Ġretirement": 15666, "gran": 27679, "Ġcreator": 17904, "Ġspurs": 42521, "Ġ},": 7950, "ĠThem": 31087, "Ġcontin": 1190, "mod": 2172, "Ġdecks": 38086, "transl": 38866, "LU": 23441, "Ġchat": 11743, "Ġfascinating": 4013, "urches": 9443, "ivir": 48393, "Ġdirt": 13472, "Ġevolutionary": 10207, "Ġdon": 1326, "Ġcompress": 16424, "Ġlevels": 1825, "grids": 46740, "ĠDepending": 13542, "Ġmiracles": 25384, "ĠEthics": 18975, "WARNING": 40666, "Ġsouven": 38112, "Ġexcitation": 39171, "Ġsulph": 21340, "Ġstroll": 40564, "Ġcountryside": 20959, "Pur": 26578, "Ġpottery": 18720, "ĠSlavic": 34877, "ĠConsumers": 35637, "\"]]": 44774, "Â´": 23587, "ĠApostles": 36753, "ĠChiang": 42229, "iew": 928, "Ġunderpinning": 28996, "elius": 38709, "ĠKar": 13463, "Ġstats": 18947, "ĠGlory": 44921, "Ġinstrumental": 15749, "irect": 1196, "wra": 20302, "Ġneutrons": 28670, "Ġway": 970, "ĠBuilding": 8391, "Ġreassess": 42191, "Ð°ÑĤ": 31410, "ĠEnforcement": 36220, "atonic": 41672, "ĠPyram": 25609, "Ġrubbed": 46876, "prise": 19962, "Û": 166, "Predict": 44509, "ĠTransformation": 30004, "continuous": 46857, "melt": 48189, "Ġlobes": 32539, "Ġgain": 3184, "PDATE": 32188, "hack": 48765, "Ġmeal": 6960, "ĠColour": 41002, "Drug": 33297, "ĠBord": 47490, "PSS": 42697, "Ġfabricated": 33008, "Ġexpresses": 22914, "Ġpul": 4881, "ĠActually": 24737, "Cut": 25285, "ĠHast": 35179, "ĠLt": 31283, "Ġappe": 3655, "TH": 7444, "omegran": 32536, "iterate": 28902, "ractice": 18979, "adr": 28295, "Ġstabilize": 23173, "Ġdisagreements": 20960, "Ġwound": 8376, "Ġdestinations": 20274, "Ġscale": 3964, "edies": 12854, "Ġhymn": 34844, "Ġanalysis": 2318, "Pass": 17911, "Ġsonic": 41005, "olor": 33395, "ĠAntiqu": 38438, "ĠGraves": 37287, "sville": 38682, "Ġhostilities": 36106, "Test": 6310, "ĠTheatre": 22660, "ĠFix": 32205, "Ġabbreviations": 38183, "Ġheard": 3984, "Ġadopted": 6582, "Ġdirector": 6510, "ĠWald": 27001, "Ġfeeling": 4330, "regate": 29001, "Ġlogin": 17389, "ensation": 18933, "ucc": 26292, "ĠDiagn": 15586, "Ġsupervisor": 12541, "Ġspecifications": 18202, "Ġrating": 14404, "Î¬": 26112, "ĠDavis": 12897, "iates": 27269, "ĠKerala": 32672, "Ġreturned": 5598, "Calculate": 44345, "ĠAcquisition": 41293, "Volume": 26579, "Ġdetects": 29967, "cial": 2414, "ĠMeyer": 31196, "ĠLancet": 26352, "Ġsentimental": 43747, "Ġgraft": 28377, "Ġpancreatic": 22594, "Contact": 18320, "akes": 1154, "Ġglobalization": 17165, "Ġassigned": 8002, "Ġfranc": 34525, "ĠConcentration": 44785, "ouched": 26526, "ĠPartnership": 23657, "Ġpastime": 37961, "Hope": 42519, "born": 6862, "ĠEmirates": 46398, "Ġinhibitors": 19624, "Ġhorrible": 27431, "Ġsavory": 33285, "ĠCollege": 5242, "ĠEstab": 13322, "heny": 47225, "orr": 27215, "Ġautobiography": 30725, "Ġinadvert": 30563, "machine": 24939, "Ġenzymes": 11201, "ridged": 42113, "Ġpressure": 2456, "observed": 43352, "Ġdownt": 14583, "ĠLeone": 32078, "ĠMySQL": 36561, "ammu": 46209, "ĠBASIS": 27020, "arthritis": 21582, "ħ": 223, "Ġaqu": 6669, "designed": 24038, "Ġurinate": 44149, "Ġflights": 17043, "ĠExtension": 16485, "Ġelders": 19096, "ft": 926, "ĠÃĨ": 44741, "ffic": 2046, "Ġstudent": 2222, ":**": 3967, "Ġauditor": 33157, "rogens": 31142, "Ġhard": 1759, "ĠREDD": 47594, "Ã©r": 36369, "ĠGradient": 48596, "Ġcollaborated": 28535, "pend": 19026, "Ġsalivary": 37885, "Ġwoodlands": 32454, "Ġcyclones": 38280, "Ġclient": 5688, "cancel": 37341, "Ġfus": 31352, "ĠNehru": 39717, "ĠZurich": 39348, "Ġmassacre": 28976, "Ġmonog": 44660, "Ġsermon": 33423, "Ġinteg": 2328, "Î½Ïī": 40005, "Ġstoryline": 40341, "ĠIrving": 40417, "Ġemptying": 43450, "Ġpreb": 40125, "Ġmangrove": 34679, "Ġremitt": 46726, "ĠHok": 44333, "Ġlongest": 15019, "inventory": 46714, "ĠControl": 6288, "uxley": 43019, "Ġmicro": 2514, "Ġclass": 1128, "Ġlearners": 6779, "ex": 888, "Ġtb": 45500, "ĠWilde": 38545, "ĠChilean": 34518, "Ġmule": 35509, "atosis": 43740, "Ġsalient": 31672, "ĠEmploying": 46836, "addy": 26462, "packages": 27347, "|-": 47620, "Ġhomicide": 41238, "entimes": 35510, "Wild": 24951, "comparison": 47412, "Ġgrill": 35381, "ĠTMJ": 42412, "ä»": 15076, "ĠGem": 23627, "ĠCampaign": 18484, "ĠPrioritize": 41171, "Ġcontrovers": 7359, "pat": 4684, "auri": 34032, "Ġmosaic": 23095, "ĠDenver": 25002, "ĠTurks": 25518, "Ġansw": 2196, "asure": 5238, "Ġcorona": 40117, "Ġbraces": 27379, "Ġgastro": 13114, "arious": 11179, "ĠDOE": 35405, "Russian": 29935, "ĠPlanning": 13408, "Cal": 10745, "Ġillustrations": 12961, "ĠMesoam": 40182, "A": 49, "Ġwritings": 11657, "ĠFlor": 6488, "omas": 4815, "Ġcot": 47094, "ĠGri": 38838, "Popular": 39144, "ĠiPhone": 22339, "ĠConfederate": 14722, "ucaly": 27072, "poll": 21570, "Ġprobiotics": 24068, "Ġsneak": 36000, "ĠLem": 25170, "Ġinconsist": 23933, "Ġexhibited": 17223, "Ġneutr": 22000, "ĠAuton": 26383, "Ġstat": 2091, "Ġreinforce": 12756, "Ġrenewable": 8134, ":]": 13372, "Ġtraces": 14419, "Ġhypertension": 14763, "Ġbodies": 4135, "old": 793, "ĠShiva": 26012, "ĠSequential": 43218, "categorical": 43400, "Ġpicked": 11973, "Ġephemer": 32408, "ĠDeleg": 42691, "Ġexplores": 11304, "èĢ": 39648, "ĠUl": 20426, "therapy": 35480, "Ġdisp": 14025, "ĠPurs": 35228, "================": 6414, "Ġcondu": 32151, "ĠPis": 43094, "ĠZn": 42344, "Ġmeta": 12430, "prus": 26333, "Ġdaughters": 16924, "Ġcutting": 5871, "Ġmagnets": 25157, "Ġupfront": 36409, "'\"": 20834, "ĠLev": 16747, "Ġvantage": 45267, "ĠOrganizational": 43433, "Ġgotten": 17986, "Ġalarm": 12991, "ĠGeophysical": 40724, "ĠIntroducing": 30387, "protected": 23664, "Ġtranslating": 25436, "Ġignores": 33173, "ĠPosted": 40203, "ĠĠĠĠĠĠĠĠĠĠĠĠĠĠĠĠĠĠĠĠ": 35318, "uang": 36112, "Ġpsychologists": 17620, "grads": 44666, "Ġparanoia": 48035, "ĠInstruct": 31964, "Ġmarriages": 21336, "Ġaccompan": 8546, "ĠBrexit": 42046, "Ġfame": 19084, "ĠMexico": 5647, "Ġmosquito": 15209, "ĠRecon": 39354, "iwi": 34528, "esc": 2599, "kind": 8907, "rowave": 44542, "Ġamenable": 42804, "ĠBiden": 40406, "Ġnit": 6043, "movement": 42246, "Ġcanyons": 46718, "hev": 47508, "Ġab": 453, "Ġventricles": 48411, "Ġdegraded": 25355, "Ġsidewalk": 38523, "Ġneon": 20734, "Ġbaskets": 28980, "Ġcatalytic": 32484, "ĠThanksgiving": 20611, "Ġreplaces": 28593, "Ġcontiguous": 35717, "Ġhacking": 30676, "rend": 13029, "ĠLA": 18630, "Ġsurgeries": 22871, "subs": 40647, "ĠSqu": 10382, "Lin": 28062, "chlor": 22228, "Ġintensity": 8381, "zel": 30151, "ĠAram": 34726, "Ġricher": 20269, "java": 36792, "agara": 30311, "Ġweakening": 31216, "Ġswords": 29871, "ha": 3250, "Ġauthent": 6515, "Ġdispl": 8054, "ĠTeachers": 12306, "ĠAuthentication": 40996, "ĠJournalism": 41697, ")):": 10290, "Ġport": 2399, "pret": 13080, "Ġfingertips": 32634, "illin": 21958, "lict": 11768, "agency": 35439, "odal": 32058, "orporate": 46010, "Ġelements": 2728, "ĠPCBs": 39103, "Import": 18754, "Ġpole": 15997, "Star": 28616, "Ġfraction": 10236, "like": 2579, "Death": 34698, "Ġgermination": 26298, "edges": 17464, "vi": 8982, "Ġwasted": 20810, "Mer": 31180, "ĠÙĪ": 35964, "Ġlandsl": 26705, "Ġ$": 1885, "Ø©": 43463, "Ġlem": 20417, "museum": 48330, "balls": 28172, "Ġlarvae": 13903, "Ġrigorous": 11235, "ique": 1496, "Ġtel": 20669, "å¤§": 41479, "Ġdoubtless": 47253, "ĠBug": 31908, "ĠApply": 16615, "imbabwe": 22113, "ĠRaising": 40961, "LOGGER": 47409, "ĠInsights": 37094, "ĠProg": 9273, "LED": 28155, "FS": 12213, "Ġconcluded": 9293, "Ġc": 265, "Ġinstallment": 45273, "Ġdecaying": 36177, "ĠObtain": 44404, "Ġcrochet": 48950, "ruly": 45987, "Ġfitting": 15943, "ĠRFC": 47807, "oscow": 15120, "micro": 20390, "`,": 9838, "dala": 30632, "Ġmysterious": 11965, "bsp": 32093, "fuels": 23363, "Ġepidemics": 29806, "Ġpunished": 23997, "CLUDING": 37853, "Ġnostrils": 39096, "Ġdreaming": 31471, "rary": 8079, "Ġsituations": 4403, "Ġtreehouse": 43909, "ĠThing": 38551, "Ġenable": 5202, "User": 11126, "Ġembarr": 16822, "engu": 14083, "ometimes": 11105, "Ġweakest": 46452, "ĠBooks": 9379, "Ġcathedral": 24371, "Ġcrawling": 35354, "Ġdiscounts": 35284, "Ġoriginally": 6909, "Ġboss": 18505, "Ġstuffing": 47254, "ometer": 10798, "ĠShaping": 43802, "ĠComment": 19429, "Ġpious": 38786, "rac": 8098, "ĠFounded": 38071, "Ġvertically": 22092, "oured": 8942, "Ġsnow": 5806, "IPS": 43314, "Population": 33107, "ĠParticipating": 48894, "ĠWOR": 35612, "Ġdoubt": 7028, "Save": 23079, "Ġabound": 28493, "ĠLik": 36795, "ĠMaths": 27327, "Ġdeterminism": 46356, "Ġpreprint": 44802, "Ġbooking": 40199, "stru": 11898, "Ġrevived": 32573, "Ġtrend": 4213, "deletion": 31744, "assment": 12826, "Ġirreversible": 26362, "mapper": 45643, "During": 6307, "Ġrat": 4309, "ĠBooth": 35692, "Ġcentralized": 21755, "WR": 19532, "Ġsanct": 15490, "Emergency": 49141, "Ġdummy": 31689, "Ġpersonalities": 19366, "Ġtheorists": 29252, "ĠDigital": 9116, "Ġbene": 8757, "Seeing": 37001, "Critical": 35147, "Ġmartyr": 31898, "Ġsettling": 21639, "iche": 18966, "Ġsurviv": 10577, "Ġphotosynthesis": 19173, "ĠPunishment": 44023, "ĠImmunology": 39883, "ventions": 6817, "ĠHistorian": 41893, "Ġheighten": 47153, "Ġthin": 5607, ").|": 43186, "ĠHttpResponse": 36848, "ĠMarvel": 36631, "Ġinplace": 38968, "Ġbibli": 16156, "Ġworries": 18962, "Ġavant": 39976, "personal": 12130, "ment": 358, "ande": 47986, "Ġimmedi": 3336, "ain": 402, "ĠPlat": 27119, "ĠEverything": 18582, "ĠBlessed": 35641, "ĠThis": 669, "Ġtrained": 7018, "Ġbids": 48271, "Ġrated": 18361, "ĠWithin": 10043, "Ġlogits": 42583, "riday": 31747, "ĠTemperature": 22358, "aware": 9290, "asi": 17834, "Ġmultiprocessing": 45407, "itamin": 8479, "Ġbullied": 30582, "MON": 42893, "Ġcarpenter": 38858, "ĠTransl": 28872, "ĠHyde": 41304, "Chall": 27649, "Factors": 40529, "ovsky": 37782, "Ġmillennium": 26175, "ura": 8763, "Ġsaint": 21400, "iliated": 45847, "ĠPolyn": 33571, "Ġnoises": 21827, "ĠCochrane": 38256, "codes": 27861, "ariat": 20292, "Ġsuicide": 10847, "Ġ\"%": 19114, "Ġpointing": 13395, "oelect": 44201, "covers": 41068, "ĠSpirituality": 47341, "Ġ:)": 33480, "Ġlasts": 16519, "zi": 16668, "Ġsegregated": 28892, "ĠDental": 16925, "mag": 21058, "Ġuse": 722, "Ġrenamed": 22184, "via": 15104, "ĠVest": 46202, "ĠParties": 27994, "ĠAny": 6049, "ç»": 20887, "Location": 19688, "Ð³": 29441, "Ġwalks": 16028, "Ġeffect": 977, "ĠPOST": 38846, "Ġfmt": 38848, "ĠGame": 12444, "Ġbites": 17792, "Ġmentor": 19313, "Ġashore": 32900, "iable": 4427, "Ġfurthermore": 41451, "gam": 47090, "Ġdet": 964, "slave": 45683, "Ġmemo": 37211, "Ġenvironmentally": 14010, "Ġpredic": 36908, "Ip": 42755, "ĠKippur": 47239, "Ġbird": 5615, "Ġmattresses": 48641, "Ġmarking": 15835, "Ġhumans": 2973, "ologna": 43581, "Ġaggregate": 18211, "Ġkidnapped": 46608, "January": 19306, "Ġshuttle": 23245, "Ġsuggestive": 36484, "Ġhear": 4875, "ĠLighting": 35828, "Ġtill": 10937, "Ġpesticide": 18218, "ĠBristol": 25984, "usive": 14113, "otonin": 19208, "Ġknife": 16760, "Ġpreservative": 46214, "Ġdeb": 2802, "asses": 8090, "Ġlots": 5890, "Ġ)": 2481, "r": 98, "Ġaperture": 25913, "ĠHold": 14165, "inently": 24236, "Ġimagery": 11195, "Ġoffenses": 32673, "Ġtough": 9228, "uster": 5404, "Ġprotocols": 11210, "ishes": 6306, "Ġformatted": 29199, "Ġpedagogical": 25411, "Ġshoe": 21120, "Effective": 21772, "Ġwet": 5793, "unc": 15977, "notification": 37759, "ĠBeaver": 38277, "Ġaft": 47122, "ĠWheat": 30811, "ĠPrag": 26178, "arynge": 29921, "Sound": 34668, "'][": 13237, "ĠAllan": 30068, "ordination": 45534, "ĠMiranda": 41942, "Ġaneurys": 36415, "Ġunderscore": 20377, "Ġspinning": 17898, "Ġpaste": 14467, "Ġbranding": 39865, "ĠChildhood": 21496, "Ġcorpor": 5808, "Ġequ": 1220, "ĠGlacier": 35285, "Ġodd": 12365, "esus": 21650, "Ġexpressly": 37662, "fits": 20971, "ĠDiagnosis": 26956, "Ġabove": 2120, "ĠDocument": 14754, "ĠGang": 35028, "ĠFol": 23381, "Ġx": 1792, "utherford": 42310, "ĠEagle": 23985, "ĠHighland": 37492, "Ġvictims": 7800, "Anxiety": 45215, "Ġdecrease": 6302, "Ġimpe": 33260, "Ġshin": 40507, "Mask": 39320, "ĠQing": 28821, "ffer": 39505, "unge": 30120, "stood": 5623, "Ġeasiest": 17167, "Ġinspired": 6504, "ĠTestament": 9978, "flows": 35396, "guide": 30956, "Ġlittle": 1838, "ton": 1491, "Ga": 28387, "ĠHugh": 26751, "ĠGaul": 30722, "biosis": 36892, "ĠNietzsche": 36786, "Ġshrew": 45345, "Ġdangerously": 38745, "ĠAssy": 21652, "Ġlethargy": 42072, "ellan": 42106, "Ġdiplomatic": 19191, "Ġirritated": 33264, "Ġstudying": 4836, "bodied": 38201, "Ġborrowers": 40856, "IF": 8107, "ĠHoward": 17343, "nies": 47825, "Ġabol": 11944, "Ġwarmest": 35998, "ĠMag": 6840, "ĠJer": 5915, "gi": 5526, "ĠStanding": 28379, "opolitan": 37464, "ĠUlster": 44466, "Ġintention": 9320, "asu": 45763, "Ġchords": 25544, "ĠStanley": 22787, "ĠMonteneg": 48041, "Occup": 42701, "city": 20721, "GH": 23960, "Ġknew": 5341, "really": 40311, "Man": 7764, "Ġoverlap": 15972, "ĠReformed": 45467, "ĠSciences": 7945, "ECK": 34137, "Ġdismantled": 45099, "Ġtul": 31083, "ĠCoul": 47740, "Ġsyndrome": 6489, "isition": 9633, "oscopy": 20703, "ÙĴ": 29372, "Ġstature": 33396, "Ġsurg": 4100, "kp": 47374, "aders": 16942, "NL": 32211, "ESCRIPT": 34796, "Ep": 21484, "Ġlogistical": 33305, "ounded": 19717, "ĠJere": 20818, "Ġextracurricular": 32020, "ecause": 3420, "gemon": 27816, "odil": 42865, "ĠNile": 16642, "Ġfingerprint": 21286, "chers": 6134, "led": 1007, "ÐºÐ°": 34536, "Lev": 29807, "Ġhoney": 8450, "ĠNOW": 41949, "Looking": 20552, "ĠDed": 39088, "Ġprobing": 35327, "ĠIncome": 24278, "Ġkinder": 46426, "ĠRates": 31988, "æīĢ": 48593, "Ġfinished": 7721, "Ġanalysts": 21273, "Ġimbued": 44784, "ĠVand": 37836, "Ġinn": 7954, "Ġalumin": 11218, "Ġgob": 34164, "Ġexercises": 6379, "ĠWhich": 10366, "determination": 21440, "burne": 48665, "vin": 10051, "Ġconject": 30653, "ĠExcessive": 29470, "ĠUI": 27125, "Ġcon": 345, "Ġunicode": 29661, "inc": 1950, "bey": 18949, "gha": 47948, "ĠDiseases": 15202, "ĠLED": 11528, "Ġfamiliarize": 27019, "Ġsaid": 1137, "ĠSnake": 32158, "Ġschemes": 13730, "together": 35935, "Ġemploy": 2057, "ĠSm": 3511, "Ġscant": 38008, "Ġvalleys": 20232, "ernel": 8558, "Ġreproduction": 12166, "Ġaroma": 25949, "Ġsage": 19113, "Ġepics": 48999, "Ġchemist": 27319, "Barn": 48698, "Ġmention": 3311, "bolic": 32277, "stream": 5172, "ĠShinto": 49046, "Ġforensics": 47532, "Ġturtles": 16304, "Ġfir": 31071, "Ġgt": 27792, "tuning": 40162, "Ġprestigious": 19072, "Ġfeminism": 27465, "Ġdetermination": 8829, "ĠMo": 6818, "associated": 21229, "oidal": 20153, "Fort": 30119, "Ġpoly": 5003, "ĠHE": 18209, "Ġmultitude": 21030, "ecting": 18489, "Complete": 34486, "Ġgrounding": 28437, "return": 5406, "Ġspouses": 34445, "ĠAdam": 11845, "Ġpermeable": 41821, "Ġtandem": 33069, "study": 23333, "Ġoffshore": 18992, "Ġmini": 9898, "Ġlatter": 6791, "then": 4888, "Charles": 26776, "---------------------------------------------": 48344, "Je": 46719, "Ġwhatsoever": 27499, "Ġcontributor": 21804, "ĠExcess": 21961, "Ġwor": 458, "Ġenterprise": 13353, "Ġarc": 13210, "edias": 38652, "Ġenshr": 40148, "Ġadop": 5108, "Ġtopical": 22219, "Ġdisturb": 7297, "hatma": 38715, "ĠLGBTQ": 12812, "ĠNOAA": 22132, "oplankton": 40399, "Program": 20475, "Ġphysiothe": 46659, "doctor": 21869, "Ġtactical": 28187, "evident": 46115, "ĠAmid": 27905, "Ġawful": 29696, "ĠPH": 13827, "Ġaccomplishments": 18198, "Ġwhatever": 6974, "ĠJudea": 46103, "aign": 4344, "Ġambassador": 32322, "TSD": 14834, "Ġoutdated": 23082, "Pu": 39777, "website": 46247, "rag": 1808, "ĠTaste": 41581, "ĠCruz": 28365, "ĠExposure": 22427, "ĠExcited": 31355, "ĠDefine": 20362, "ĠRao": 48080, "âĸĪ": 15703, "Ġhidden": 5631, "ĠUses": 25824, "ĠZinc": 36175, "ĠDyn": 48079, "Ġtyranny": 31818, "vironments": 4830, "Ġshareholders": 26887, "ĠBot": 14639, "ĠOUT": 26841, "ĠAbigail": 39940, "Ġsupervising": 43442, "activated": 27394, "Ġpym": 43511, "Ġrested": 32763, "Ġeagerly": 22226, "Ġhip": 11521, "Ġcited": 10588, "Ġtodd": 15559, "Ġdeforestation": 16868, "Ġnamed": 3365, "awi": 22654, "Ġperspectives": 5417, "ĠRN": 22761, "Ġintestinal": 14814, "ocur": 15198, "Ġinfrastructures": 41244, "registry": 33307, "elif": 22082, "ĠCenters": 12992, "orative": 11794, "Ġloses": 18691, "ĠHop": 10941, "ricia": 30769, "Ġgasoline": 16791, "Ġacademic": 4072, "Ġinsomnia": 19871, "ĠAffect": 26682, "Ġchart": 6473, "ĠGiving": 29302, "ĠViet": 8131, "Ġom": 9313, "Ġfeathered": 44455, "cluster": 14893, "ĠNordic": 31100, "icia": 33441, "Ġachievable": 26450, "Ġepigen": 25300, "ĠSnap": 36727, "Ġlipid": 21160, "Ġhernia": 34970, "Ġproblematic": 14385, "Ġsarc": 24459, "Ġdrafting": 26920, "ĠWend": 30079, "ĠTrib": 15295, "Ġgrows": 8759, "Fin": 20558, "Ġpolynomial": 23539, "One": 2705, "ĠExperience": 17798, "Ġabolitionist": 37414, "Ġsolely": 9127, "Ġblending": 17054, "Ġdisappear": 12396, "Ġassessed": 12290, "ixture": 6425, "ĠAddress": 18428, "ĠHun": 16012, "ĠGastro": 31223, "Ġorganised": 20918, "ĠActive": 17007, "opping": 21504, "Ġreadability": 36807, "pron": 23039, "Ġhealing": 6705, "Ġobstacle": 20135, "Ġpartner": 7136, "ĠMatthew": 14018, "ember": 1548, "phi": 20388, "kers": 20024, "âĢĿ": 573, "morph": 40789, "Ġnewborns": 28161, "ifications": 5705, "Ġsubmitting": 22785, "Ġpresence": 4313, "yellow": 23429, "ĠWind": 6234, "Ġelectromagnetic": 14744, "serializers": 43038, "ĠESL": 33111, "ĠHispanics": 35760, "icy": 8744, "Ġsteak": 42524, "YP": 38571, "Ġassemblies": 27896, "Ġmustard": 26696, "franch": 33659, "jo": 12780, "ĠMenu": 35365, "Ġneglected": 18724, "oral": 6628, "Ġâī": 21004, "Ġzoning": 30067, "ioles": 48853, "intage": 19174, "ÑģÑĤ": 24674, "Ġpervasive": 23524, "Ġattacking": 19095, "Fried": 48844, "Ğ": 214, "Ġdeprived": 23045, "ĠDemographic": 48447, "Hs": 43460, "gets": 10486, "ĠFrozen": 48884, "ĠConnecticut": 16389, "!âĢĿ": 10761, "Ġrehab": 11337, "Ġrejoice": 45466, "Ġinternship": 32597, "Ġmarig": 49072, "tec": 47494, "Ġengineers": 7460, "terror": 37723, "Ġsoreness": 39119, "Ġmanufact": 3217, "Ġpopulous": 35488, "ĠMoral": 29014, "ĠWilli": 4121, "dup": 18448, "Ġballast": 42869, "Ġremod": 30335, "Schol": 38226, "Ġninth": 25784, "mission": 3211, "Ġrelay": 18493, "Â³": 39050, "label": 5072, "Ġfolktales": 42012, "ĠPharisees": 45262, "Ġrepay": 24912, "Ð¾ÑĢ": 33175, "List": 6106, "Ġcomprised": 15556, "Ġgratitude": 15010, "sex": 8745, "Ġthreatened": 9521, "Ġcontradictory": 27294, "Ġnumbering": 35745, "Ġworthy": 14942, "configs": 34157, "ĠBroadcasting": 42685, "Ġpuppets": 38452, "Ġunsure": 18661, "Ġscarcity": 20701, "Hi": 26843, "Ġfillings": 29186, "Ġbizarre": 26393, "Just": 8760, "minist": 2924, "Ġawaited": 37678, "Ġlapt": 13012, "organic": 17715, "Ġ\"-": 18395, "rex": 30542, "inephrine": 45055, "ĠTir": 44482, "Ġgripping": 35913, "Ġapologize": 40150, "Michel": 46586, "FDA": 30088, "Ġunwitting": 46936, "Ġunderlie": 41067, "Ġalbeit": 20795, "å¹": 32090, "ĠLifestyle": 36253, "Ġhardship": 25073, "ĠChange": 7662, "Ġconsensus": 12286, "ussis": 37504, "Ġspanned": 39507, "ĠLtd": 16137, "Ġabstraction": 27156, "Ġpebbles": 36993, "fourth": 38525, "Ġ": 216, "piration": 35414, "ĠSurgery": 19160, "ĠMortality": 39998, "Ġprogressed": 25277, "Ġfumes": 30916, "Ġawake": 22576, "FE": 20096, "alty": 36606, "ĠCopper": 26031, "Ġacknowledge": 10406, "ĠPositive": 20085, "swap": 39524, "ï¸ı": 31752, "Ġprick": 33636, "output": 4952, "ĠAllow": 13494, "ĠSug": 36535, "ĠHastings": 39337, "Ġaltruism": 45101, "vation": 12362, "Ġdilation": 36441, "ĠBeing": 9415, "ml": 3566, "Ġbreak": 2373, "ongh": 28741, "Ġsubjective": 16344, "Ġassisting": 22656, "Ġchassis": 39087, "ĠHLA": 43799, "Ġlikely": 2003, ">\",": 24165, "Ġrelations": 1765, "Ġisolated": 8807, "ĠCCS": 26724, "Ġlime": 19609, "Ġwil": 34324, "Ġve": 1590, "Ġtran": 18376, "fore": 892, "ĠIndependence": 14188, "viously": 13537, "ĠSad": 17509, "ext": 1527, "Ġpaints": 19063, "volume": 15591, "Ġfolate": 29768, "Ġgrower": 43569, "Ġefficiently": 8106, "ĠFS": 40017, "ercase": 36906, "Ġcolloqu": 32054, "Ġdeciding": 13642, "ĠBreton": 48636, "ĠMN": 29120, "ĠVon": 33206, "ĠPMID": 14673, "ĠÑģ": 21986, "lor": 4553, "verified": 47215, "ĠFriedrich": 26032, "inance": 11079, "indent": 32166, "Ġpolys": 32186, "Ġaeros": 21085, "Ġmotto": 31084, "Ġbell": 13095, "Â²": 19133, "Ġneoc": 40352, "ĠFamiliarize": 25936, "ig": 324, "Ġmole": 3732, "Ġbullet": 16425, "Ġpruning": 20584, "doc": 5735, "ĠCoronavirus": 38641, "»": 136, "native": 19344, "Ray": 30300, "Ġm": 283, "Regardless": 30030, "iph": 12259, "ĠWillow": 45974, "ĠAdding": 20925, "change": 3520, "Ġquiz": 17099, "Ġregul": 5543, "Ġcemeteries": 34735, "Ġlowercase": 37748, "iu": 48390, "ounding": 14322, "ĠConcrete": 36445, "ĠFlora": 34411, "EAR": 42433, "Ġreplen": 24277, "Ġreligion": 4738, "specifically": 44273, "Ġwithdrawal": 14635, "ler": 2347, "ĠAluminum": 41640, "ĠVik": 24753, "Ġchiefs": 28717, "Ġprime": 9552, "Ġelongated": 29743, "Ġoste": 10975, "Ġwax": 14093, "ĠCarlos": 24285, "week": 13749, "Ġtraceback": 37119, "Ġclimbed": 30324, "country": 16664, "perfect": 29448, "Ġperme": 15438, "growing": 19089, "Ġker": 26262, "Except": 45168, "Ġunpre": 11826, "Ġtightening": 41440, "phrase": 33166, "ĠMarxist": 27598, "umably": 38419, "Ġcube": 20636, "\":\"": 25535, "sep": 29070, "Ġinfants": 10278, "MIT": 28845, "Ġcomplaining": 34479, "ĠELL": 44192, "Ġsignature": 13003, "George": 23958, "Ġhorses": 8419, "Ġgp": 41946, "ĠProtective": 38934, "Ġmultilingual": 36279, "Ġradios": 31425, "<|reserved_special_token_43|>": 49234, "Ġresolve": 10575, "Ġlean": 10681, "ĠAssociations": 45971, "Ġesc": 23680, "Ġunsustainable": 32071, "does": 26802, "ĠFAO": 29765, "isters": 7273, "arvation": 23766, "ĠGeo": 31437, "network": 13118, "Ġinvoking": 41531, "ĠAndrew": 10795, "Ġsurveyed": 19795, "ĠCharity": 44184, "ĠVision": 17753, "Ġtending": 33989, "ĠKim": 13440, "Ġconced": 31482, "Ġcolor": 2380, "ĠPoly": 14207, "ikan": 45576, "Ġauthenticity": 16795, "Ġfestive": 34011, "Ġthermost": 28452, "erman": 9277, "Everything": 33057, "aki": 13555, "Ġnew": 725, "Ġbewild": 46331, "ney": 2074, "ĠCustomer": 29582, "Ġstick": 6420, "Ġate": 15563, "Ġtingling": 32897, "Ġnative": 4534, "sentences": 43886, "=\",": 48389, "Ġpom": 47095, "Ġnever": 2093, "atars": 30961, "å¤": 18614, "Ġanci": 40505, "Linux": 37656, "Leg": 19794, "Ġrebellion": 16983, "atile": 10077, "itime": 14071, "Ġprotesters": 33628, "Action": 16521, "ffe": 11112, "ĠVenet": 31349, "ishi": 29740, "bersome": 39288, "Ġvegan": 19913, "ĠKau": 30480, "Ġnewly": 7796, "opport": 46908, "ĠDum": 34671, "ĠNeural": 25934, "ĠJFK": 48110, "Ġreload": 42581, "ĠBaltimore": 17896, "Cs": 17208, "Ġnematode": 46290, "Generic": 41112, "ĠTim": 6362, "ĠSquad": 29908, "Ġforemost": 19330, "Ġhighly": 3452, "ĠMan": 2506, "Ġorganize": 11242, "Ġforb": 13740, "Sir": 29156, "ĠNavigation": 33422, "Ġlists": 8639, "à¤µ": 38050, "Ġalarming": 21605, "Ġafflicted": 31507, "ĠMeth": 28613, "Ġbrim": 46620, "Ġpave": 17654, "gc": 41593, "Ġperoxide": 29483, "arnation": 24188, "Ġfloats": 30595, "Ġcomplements": 38433, "Ġsyphilis": 34495, "Ġcrowded": 19792, "Ĵ": 236, "ato": 6401, "Ġ%": 2471, "Ġvagu": 41682, "ĠKab": 23459, "Ġcramps": 26170, "ĠGold": 6920, "Container": 36989, "Ġsumm": 15619, "race": 11617, "arel": 29065, "Ġprefixes": 42770, "Ġinquire": 37933, "ĠRoof": 44595, "Ġimpover": 27863, "Ġbend": 17286, "Ġdissemination": 23127, "Jesus": 23604, "Ġteddy": 44411, "ĠShale": 44503, "aks": 5701, "ĠFrame": 30626, "Ġclarification": 28879, "ĠFlanders": 45191, "ĠLewis": 11968, "Years": 38457, "write": 5162, "Ġaqueduct": 44668, "Ġsynchronization": 35311, "Basic": 22177, "Ġfiber": 7161, "Africa": 39208, "Ð»": 12681, "ĠMim": 49063, "ĠDolph": 38606, "ĠWeapons": 37882, "Ġperceives": 41993, "<|reserved_special_token_71|>": 49262, "Ġcapitalize": 33781, "Ġcongestion": 19678, "ĠDE": 12288, "ĠWi": 15030, "apps": 26749, "Ġvirgin": 21618, "ĠBabies": 33077, "Ġmk": 39127, "ĠDef": 4496, "vs": 20782, "Ġeighteen": 25808, "ĠEncourage": 11434, "Ġaccelerates": 40318, "Ġecologists": 48607, "Following": 14924, "Hold": 41606, "Ġabusing": 48371, "ĠLo": 14210, "ĠDiscuss": 10771, "ĠJoin": 21212, "Ġexpedition": 12557, "Ġarter": 11311, "plasm": 46657, "Ġacknowledgement": 34888, "ĠSter": 27520, "Ġplunder": 40745, "transport": 36703, "ĠSAM": 35238, "ĠResonance": 47451, "Ġpropagation": 19960, "ĠHond": 24242, "Ġoprot": 33434, "Ġdeserve": 16547, "module": 10706, "iev": 31441, "Ġaccessibility": 11770, "Ġun": 551, "Ġrestraint": 29598, "Ġdeepcopy": 48122, "ophytes": 43735, "ster": 2813, "ĠAur": 26009, "Ġregulatory": 9408, "rophy": 15220, "ĠThy": 38742, "Ġscanners": 37251, "Ġphy": 19517, "ĠHof": 38007, "reporting": 46938, "Ġauthors": 3803, "ĠCow": 21679, "Ġexperts": 4845, "ĠShelley": 33716, "Ġadapts": 41973, "Ġapplicable": 9609, "ĠTropical": 23208, "ermal": 30586, "icions": 41923, "Ġsolidified": 40474, "Ġcortex": 16153, ")],": 24329, "dL": 35943, "scale": 5904, "ems": 1687, "Ġhen": 26943, "Ġrelieved": 27650, "ĠNim": 43720, "<|reserved_special_token_78|>": 49269, "hem": 1676, "ĠCognitive": 18062, "ĠLeonard": 30327, "Ġcharacteristic": 9231, "Ġpuls": 23553, "Ġspelling": 12157, "Ġmarried": 7553, "ĠDirector": 9685, "estinal": 13728, "Ġoneself": 13971, "?).": 34251, "ba": 8094, "Pi": 41967, "ikhail": 44492, "rained": 10164, "College": 40108, "Ġrecognises": 46463, "Israel": 26098, "Ġexcessive": 7446, "Ġshowed": 4342, "abeth": 8721, "TM": 25405, "Ġmotility": 41370, "Ġhalfway": 26974, "adone": 47442, "Ġelectrical": 5464, "Ġwatery": 32415, "l": 92, "Ġconcert": 12154, "ĠAlfred": 18587, "Ġpardon": 44228, "utenberg": 41871, "opters": 30195, "ECD": 22511, "Ġwatering": 15877, "ĠDana": 35765, "idisciplinary": 23197, "awa": 10734, "ĠTrinidad": 42270, "ipa": 44437, "Ġdunes": 31072, "Ġor": 355, "Ġ\"{": 24635, "Ġscientist": 8201, "ĠWhere": 7655, "rash": 38211, "airy": 8023, "Ġmanure": 19251, "standing": 2946, "©": 119, "Ġembodying": 39669, "kee": 22137, "Ġ%(": 19013, "Ġhypocrisy": 46199, "Ġairflow": 26806, "inians": 23053, "CHAR": 45293, "ptical": 17148, "loan": 36528, "oplan": 25835, "ĠChief": 10964, "Ġshampoo": 36101, "Ġmucosal": 43010, "Ġrandomised": 43960, "Ġfastest": 17938, "ĠApproaches": 24803, "clusive": 5560, "Ġconstraint": 24653, "ĠCoordinator": 32619, "ĠTriangle": 34572, "Ġdestroying": 17771, "minor": 34705, "Ġgoogle": 23833, "{\\": 26754, "Ġconsist": 2734, "ussia": 21628, "inth": 12749, "Ġdump": 14394, "Ġuniquely": 19971, "Ġtasting": 31629, "Ġsympath": 31926, "ĠBasin": 16463, "Ġhomeopathy": 44086, "iously": 10604, "Ġpenny": 32141, "Ġdispro": 14627, "Ġintestines": 22963, "ingale": 46313, "swers": 22245, "Ġrecommended": 4947, "Ġnuclei": 24245, "Ġstumble": 37604, "anders": 32565, "hazard": 47307, "ĠVirt": 13209, "Ġresources": 1952, "Ġflair": 41864, "Ġtoughness": 40683, "Ġmotorcycles": 44336, "Ġskeletons": 31779, "ĠMassage": 46564, "ĠJerusalem": 9926, "Ġshortages": 20659, "Generator": 29771, "otton": 8130, "Ġobtaining": 13725, "Ġpattern": 2191, "Resources": 31382, "ĠTouch": 28236, "ĠCalendar": 29779, "DAR": 38225, "Ġexploding": 41906, "ĠScandinavia": 34997, "ĠBishop": 16812, "Ġsatisfied": 14090, "ĠNewfoundland": 31834, "ĠDetermining": 44475, "yers": 13250, "mobile": 33963, "ĠCommander": 26457, "Ġbadges": 39659, "Ġscreened": 25923, "Ġfingers": 10201, "Ġrecalling": 39029, "Donald": 20214, "Ġsubtraction": 27308, "Ġcarrying": 7980, "Ġpodcast": 17841, "ĠEvaluate": 26100, "andals": 43465, "Ġlends": 34605, "Ġfeats": 30334, "Ġblog": 5862, "Ġcompromised": 17711, "ĠWILL": 40211, "ethoven": 29870, "Ġrecycl": 6591, "Ġcriticisms": 29296, "ĠLOG": 25855, "ĠPose": 35227, "Ġemanating": 43839, "Ġmanipulations": 41089, "ois": 9726, "whe": 12621, "Ġlentils": 32325, "Ġinhuman": 47721, "ĠFunctional": 27165, "Ġcourt": 4772, "LS": 12041, "ĠNO": 10921, "ĠOutcomes": 31760, "Ġshimmer": 47015, "Animals": 42223, "Ġdangerous": 5177, "ptics": 32179, "Ġlava": 20209, "Well": 10768, "arded": 11969, "Ġcapsule": 20457, "ashire": 47271, "Ġgroom": 20666, "ĠPokÃ©mon": 39922, "itext": 43744, "ĠMotion": 27697, "%),": 16556, "utrient": 23211, "Ġeffective": 2430, "Ġmalicious": 19399, "Ġservic": 44352, "ICE": 15799, "Ġcould": 856, "Ġworn": 11742, "ateg": 1322, "ĠKurt": 34843, "ilit": 3989, "Ġsymptom": 10884, "ilic": 37502, "Ġinduction": 19934, "Numbers": 39006, "ming": 2803, ".--": 46531, "rification": 32614, "Ġpkg": 37721, "limit": 16665, "Ġassessing": 13441, "Ġvoy": 14718, "Ġdisciplinary": 27120, "hyper": 26248, "Ġnodules": 37543, "}',": 32790, "font": 17617, "Care": 20158, "KB": 37166, "compliance": 37283, "Ġhere": 1535, "ĠTreaty": 13726, "Ġbulk": 12785, "Ġnursing": 11040, "ĠOrganisation": 24002, "Stream": 23484, "Ġferns": 36534, "Wh": 2703, "topic": 18879, "Ġstreng": 2592, "ĠCharacters": 25055, "ART": 10642, "Ġlighted": 49021, "geometry": 30281, "atorial": 27782, "borough": 22829, "Ġhues": 26815, "Ġbacon": 31481, "Photos": 33580, "Ġconquering": 42114, "Ġcd": 42038, "Ġrunner": 23786, "atta": 28622, "ĠPerception": 36597, "emi": 47836, "ĠAzte": 25614, "Ġsource": 2257, "Ġprelim": 15099, "achment": 14462, "Ġstomachs": 43473, "Ġ\":": 27971, "ĠLinkedIn": 39424, "cian": 35614, ".],": 46496, "Ġdeteriorated": 40321, "Ġpunctuation": 23784, "Ġlanes": 25417, "Ġvanity": 48238, "Ġarchitects": 15925, "divide": 49099, "Ġ+": 1232, "NOAA": 43292, "ĠMakes": 26504, "Ġmitigated": 47638, "Ġwhit": 19302, "Ġincreasing": 2474, "Ġmound": 27751, "Comments": 32342, "Ġdividend": 38703, "ĠKazakhstan": 33519, "Ġcommanded": 18761, "Ġcompiler": 25316, "ĊĠĠĠĠĠĠĠĠĠĠĠĠĠĠĠĠĠĠĠĠĠĠĠĠĠĠĠĠĠĠĠĠĠĠĠĠĠĠĠĠĠĠĠĠĠĠ": 36328, "Ġnickname": 26838, "ĠNormally": 26685, "ache": 4390, "Fortunately": 28048, "Ġgrat": 11914, "Ġranged": 22697, "Ġbusinesses": 4554, "Ġroast": 36722, "Ġoverwhelm": 37928, "util": 13695, "famous": 46649, "Ġpony": 45204, "Ġmanifest": 8737, "creator": 45080, "ĠSephard": 47797, "ĠBiblical": 19826, "Ġconund": 48769, "ĠNicaragua": 33623, "Ġinhal": 21514, "udal": 20022, "Ġconveyed": 24106, "ĠIncludes": 28913, "Ġstrips": 17105, "still": 28919, "nasa": 45499, "Ġincreased": 2420, "Ġtriumphant": 46326, "Ġcran": 21272, "ĠWitt": 37913, "ĠTurning": 34676, "Ġadaptability": 15680, "grace": 36510, "ĠNacional": 45162, "Ġuntold": 41533, "Ġcurrent": 1574, "Ġthermodynamics": 39361, "Ġtry": 1576, "ĠChesapeake": 28483, "TAG": 34934, "Ġscrumptious": 41943, "opsis": 21456, "Â±": 35214, "Ġdeformed": 40819, "getitem": 38672, "Ġrazor": 44358, "erville": 43223, "ĠBonaparte": 45318, "menopausal": 37065, "squared": 38014, "Ġseren": 44635, "Ġseamlessly": 19218, "Made": 42532, "Ġcolle": 2940, "minimum": 34577, "ĠTalmud": 28959, "avement": 30092, "visory": 19733, "isodes": 45481, "rou": 440, "romycin": 47099, "ĠExtended": 33847, "Ġsecretary": 18353, "Ġstylish": 36847, "ĠFrancesco": 45155, "Ġclade": 42782, "olks": 43728, "Soil": 34811, "vez": 44976, "ĠĠĠĠĠĠĠĠĠĠĠĠĠĠĠĠĠĠĠĠĠĠĠ": 47167, "pm": 11043, "etch": 7668, "Ġsignaled": 46644, "Dist": 16535, "Starting": 26163, "rades": 17197, "osh": 8619, "rating": 5053, "Ġrunny": 36292, "ĠRhythm": 47886, "Ġpatri": 12313, "space": 11602, "ĠMom": 19965, "xe": 15320, "Scot": 47038, "loor": 35980, "alan": 40123, "ĠRichardson": 30700, "Â®": 10532, "Team": 33039, "Ġnegro": 44150, "ĠJohnny": 36199, "ĠPig": 28697, "oriented": 14617, "Ġearthworms": 45075, "Dan": 23069, "usal": 7511, "Ġmodify": 11766, "Ġabund": 6635, "iforn": 3660, "ĠEF": 32552, "agram": 7874, "auts": 40455, "ĠThereafter": 47814, "Ġpursue": 10511, "Ġautonomy": 12976, "Ġseventy": 25396, "Ġrecession": 21015, "):**": 45112, "iolence": 15499, "ĠCompensation": 44444, "Ġbirthplace": 33284, "Classifier": 34086, "aghetti": 41247, "Ġimpulse": 21587, "cycle": 12022, "Ġplaintiff": 38369, "Taylor": 42504, "gear": 45947, "enance": 26254, "Ġfriends": 2428, "Ġgira": 28369, "ĠRutherford": 45735, "ivil": 2360, "bd": 34722, "Ġinsult": 25164, "ĠPythagorean": 47997, "ĠParas": 30741, "Ĥ": 220, "ĠBelfast": 45323, "Ġlegislators": 31114, "brush": 18060, "inseng": 43347, "rets": 26466, "Ġdocuments": 5660, "ĠKos": 21498, "prox": 44130, "xcc": 21208, "ĠMuslims": 10042, "urolog": 9186, "escent": 26620, "Ġbabies": 8206, "ĠVO": 48353, "ensions": 4717, "Foods": 45043, "miah": 25643, "Ġfire": 2892, "ĠMans": 28679, "ĠHeming": 42082, "wers": 32121, "Ġmeat": 5176, "urst": 29660, "ĠKrist": 28242, "ĠCritics": 30345, "='',": 28108, "Ġtheologians": 37593, "Ġcatac": 43287, "Samuel": 48568, "ĠHannah": 32413, "ĠCommissioner": 23603, "Ġnecessary": 2371, "Anna": 46484, "Ġoccupants": 28328, "Ġdenture": 46284, "Ġassisted": 17994, "ĠContrary": 36131, "ÙĨ": 18223, "Ġseb": 43346, "Ġrotating": 18326, "ĠStrict": 47447, "ĠThou": 41561, "Ġamput": 27753, "ĠCommons": 11472, "PS": 4545, "residual": 42859, "Ġclip": 16092, "Ġbankers": 43116, "apters": 36029, "Ġflee": 16360, "Ġaforementioned": 27225, "inical": 18257, "ĠLithuania": 31872, "ersion": 8684, "ĠSeb": 31606, "ĠOpinion": 36285, "Ġemotionally": 13937, "Ĩ": 224, "amous": 14955, "Ġmodules": 12370, "Sc": 6526, "Ġforeseeable": 40832, "Ġopium": 37273, "Ġresearchers": 2293, "Ġperiodontitis": 47563, "Ġspokesman": 30994, "Ġflowers": 5504, "irement": 31812, "onement": 32245, "Ġprosper": 9899, "Ġearn": 5301, "Ġterms": 2656, "Ġbpy": 44480, "Ġmoods": 30320, "Ġinclud": 765, "Animal": 32152, "Ġrainforests": 31363, "ĠBron": 16903, "ĠLeslie": 36513, "ĠLeban": 19042, "ĠÏĦ": 28880, "ĠDong": 38479, "Ġ!": 5728, "ĠReady": 29496, "Ġcow": 9956, "ĠBarack": 28950, "ĠPp": 47548, "Ġcanal": 12169, "âĢĻ?": 45018, "Drinking": 49003, "Ġreactive": 20792, "ĠWiring": 48626, "DEL": 30248, "coco": 46635, "ĠEure": 41470, "which": 5210, "Ġtennis": 21059, "Ġusual": 8336, "ophilus": 38870, "Who": 10576, "ĠESP": 40868, "Ġadvantageous": 27947, "mine": 37943, "ĠJudy": 45789, "Ġ['": 6869, "ĠSolutions": 16908, "indexes": 38757, "lette": 33306, "ag": 454, "Getty": 33655, "Ġweathering": 34568, "__.__": 26204, "tale": 34299, "Ġparticipatory": 27892, "Ġbandwidth": 20090, "Ġbucks": 43716, "riptive": 36869, "Ġvirulence": 45436, "ĠUnderground": 28116, "Ġsuited": 13491, "Ġcram": 15428, "context": 9001, "Ġutil": 3827, "bit": 3333, "ĠJonah": 42367, "ircon": 42459, "ortment": 31304, "Ġcig": 10649, "Ġuterus": 18527, "appa": 29228, "resp": 3098, "ÏĢ": 18708, "Ġmotions": 19975, "Ġenerget": 17296, "ough": 671, "Ġwelding": 17800, "ĠDickens": 29231, "levels": 28348, "iste": 40423, "ĠDip": 40240, "Ġpivot": 30230, "Ġpaper": 1941, "prised": 46950, "Ġoverlapping": 20168, "Ġmilestone": 25033, "ĠSports": 15278, "alez": 45805, "Ġexponent": 38999, "Ġpreprocessing": 41066, "ĠNeu": 42466, "olip": 34607, "Ġchromium": 29988, "\"'": 17242, "ĠNiel": 37773, "Ġparagraph": 8510, "nyder": 42852, "kernel": 18837, "aundice": 32396, "Ġproducer": 16741, "Ġdeleg": 12296, "inol": 31669, "Ġsalad": 19039, "Ġsem": 4337, "Ġmyriad": 15978, "energy": 11936, "ĠTiming": 44904, "Ġsharp": 7858, "off": 3430, "ĠMonarch": 36050, "(**": 20084, "Ġink": 12923, "alter": 31140, "discipline": 36900, "ĠArchbishop": 29834, "ĠNadu": 36023, "UNC": 47197, "ĠAddiction": 28354, "ĠAld": 20604, "gaussian": 45776, "Prevention": 35921, "orption": 31064, "ĠReform": 19012, "shell": 19738, "Ġbenevolent": 41620, "Ġwarrants": 34600, "dir": 3469, "Bytes": 38594, "Actually": 39772, "ĠUS": 2038, "ĠBoards": 41336, "ĠMitchell": 22586, "Ġfou": 45946, "ĠPrediction": 41274, "Ġknees": 17571, "Ġrowing": 47523, "Ġdeeply": 6592, "Ġà¨": 48333, "cule": 9625, "Ġaids": 12789, "Ġcabbage": 23656, "Ġaffairs": 10979, "BMI": 39692, "ĠWould": 13651, "Ġglow": 14654, "Ġprogressing": 32147, "Ġfeet": 3282, "Ġbranded": 43289, "sd": 17122, "Ġpains": 21446, "Ġcircum": 4584, "Ġgrooming": 30294, "ustomed": 22514, "ĠEssential": 20610, "sz": 44845, "getting": 37515, "ĠIPM": 45506, "theta": 16843, "Ġuphold": 18398, "imated": 14140, "odend": 31635, "ption": 1289, "Ġplatform": 3941, "Ġsque": 47456, "ĠInfantry": 23512, "bursts": 44445, "ĠEE": 33062, "Ġopportunity": 3787, "ĠParental": 47384, "ectomy": 25278, "including": 8617, "nex": 12887, "php": 18467, "Ġdisperse": 35718, "ĠStewardship": 40817, "reb": 40579, "Ġlove": 2606, "Ġwoodland": 24774, "Ġretry": 40497, "b": 82, "ALTH": 40096, "ĠVir": 4383, "Ġbou": 34432, "DER": 29738, "Ġcame": 2422, "Ġcase": 1671, "Ġparadox": 19288, "Ġrepublics": 44797, "Ġtriang": 47953, "Ġsisters": 17758, "Fear": 48310, "Ġster": 11021, "x": 104, "vey": 2845, "nels": 19180, "master": 12801, "ĠQ": 1606, "ĠExit": 44440, "Ġ-*-": 10783, "amon": 17319, "Presentation": 42942, "<|reserved_special_token_7|>": 49198, "Ġmimic": 17347, "Ġcirculating": 20308, "Outside": 45221, "link": 8371, "Ġpetty": 37176, "ĠCuriosity": 26712, "ĠIndigenous": 7087, "Ġrequirements": 4292, "ĠThird": 11961, "amphetamine": 45166, "Ġmodality": 37429, "Ġcrater": 21729, "dag": 46124, "Ġantic": 31190, "ching": 4270, "Ġambitious": 14688, "Ġchores": 23967, "alia": 15492, "Ġthumb": 13124, "Information": 19256, "Ġnurs": 6273, "Ġpossibility": 6717, "Ġdiagnostics": 28713, "Ġsolitude": 40694, "Ġnull": 10034, "Ġdiagram": 11262, "ĠSubsequently": 30908, "<|reserved_special_token_82|>": 49273, "curs": 15854, "woven": 38785, "ĠRebellion": 30405, "Ġjournalism": 20874, "ĠFL": 21405, "than": 15452, "Ġrebell": 13899, "Ġjointly": 24845, "Lee": 31479, "Ġeducation": 1888, "Ġgirls": 5901, "Ġsoothing": 27505, "Ġstimulates": 21747, "Ġabdominal": 14184, "Ġoption": 4622, "Ġbread": 6956, "ĠAlexander": 10472, "Ġflour": 7367, "ĠLP": 45306, "elic": 35611, "Tw": 21476, "ctions": 2502, "ĠLaunch": 29839, "Ġunmanned": 32774, "ĠCommunities": 18318, "Ġgrouping": 24669, "Fr": 25321, "pu": 9938, "Ġactin": 42823, "ĠChampions": 36167, "Ġexclusively": 12763, "uting": 9947, "Ġ(": 365, "Ġgeographically": 29486, "ĠEP": 28128, "Ġunidentified": 41064, "Ġanytime": 22367, "Ġpromote": 4058, "ĠMiss": 5870, "Ġteas": 31506, "ĠWerner": 46386, "Ġanteced": 41384, "professional": 31300, "ĠFlu": 12853, "ę": 210, "Ġpants": 25309, "ĠTol": 21313, "ĠQuest": 35671, "Ġsummary": 7127, "ulum": 3998, "ivid": 1033, "ites": 2171, "ĠSec": 6507, "{}\".": 38894, "Ġpie": 2357, "QR": 43323, "Ġactuality": 45866, "Ġsufficiently": 15421, "Ġremaining": 6219, "havior": 9303, "ĠDeclaration": 14434, "Tell": 31530, "ĠDelete": 35785, "Ġlovers": 21486, "Ġcomputerized": 35255, "Ġpoppy": 45113, "Ġpamphlets": 43086, "plots": 20626, "ĠAction": 10008, "uds": 33565, "ĠAnglic": 25732, "rie": 3153, "inally": 2957, "rared": 12901, "Ġprogramming": 6256, "Ġcommissioned": 16917, "kb": 37310, "Ġbirds": 4255, "«": 121, "Ġpartially": 11729, "risk": 12909, "rey": 6377, "Cook": 36720, "ĠDenmark": 15644, "ĠOccup": 17543, "Ġcog": 40602, "management": 20384, "Ġanatomy": 16209, "ĠMoss": 32880, "ĊĠĠĠĠĠĠĠĠĠĠĠĠĠĠĠĠĠĠĠĠĠĠĠĠĠĠĠĠĠĠĠĠĠĠĠ": 13617, "Ġhydrocarbons": 29220, "Ġindustrialization": 23623, "urdy": 19442, "publish": 33017, "ĊĊĠĠ": 39892, "Ġmangan": 25662, "Ġwrought": 34554, "Ġpredetermined": 27325, "Ġskim": 38268, "Ġnecessitated": 47717, "Ġexchanger": 47204, "Brief": 47662, "ĠHern": 32212, "Ġanimate": 45966, "Ġfancy": 15511, "Ġanother": 1372, "+'": 16515, "Ð": 155, "corn": 21355, "ension": 2868, "Quest": 44156, "coin": 11598, "wara": 44651, "ogens": 10747, "Mapping": 35705, "Ġ################": 46803, "Ġpropelled": 38831, "Ġdefended": 24351, "ĠTuc": 36717, "ĠCompared": 25117, "Solar": 25524, "setdefault": 46134, "Ġtrades": 23041, "Ġiconic": 13329, "Ġgifted": 20163, "Ġoscillator": 43630, "Ġadmits": 31093, "war": 6781, "ĠLandmark": 47230, "recomm": 36181, "ready": 2149, "family": 16703, "ĠHole": 32381, "ĠJE": 40969, "Ġworsens": 44851, "Ġpedagog": 16106, "anthus": 44325, "ĠWouldn": 35294, "HT": 8049, "Ġepochs": 28709, "Ġretreating": 44247, "ĠStill": 11313, "Ġrospy": 32759, "Ġmutant": 29478, "employed": 47905, "Ġsmuggling": 45728, "ĠLeague": 12406, "Ġguessing": 29916, "rimination": 19528, "Ġrooms": 10357, "Ġwelcomes": 44293, "Ġabre": 30847, "Ġgerm": 11502, "ĠProcedures": 34366, "Ġhorror": 18721, "Ġbubbles": 17776, "Ġfreel": 29994, "prefix": 12821, "fw": 37368, "Tex": 30574, "ĠHeating": 43819, "Ġunamb": 39726, "Ġforces": 3654, "Ġtuned": 21266, "mile": 19537, "Ġintermitt": 22865, "ren": 723, "Ġpropos": 3382, "Ġfibrosis": 26183, "Ġacquainted": 30765, "\"):": 12593, "Ġpercentage": 7311, "Ġpid": 36825, "+(": 46078, "Ġripen": 45032, "ribed": 7199, "Ġrelics": 27686, "ĠLoren": 30568, "Play": 20522, "ĠPractition": 34498, "sem": 8188, "Ġeducators": 7537, "ade": 903, "Ġintric": 6174, "Ġpore": 33953, "Ġanem": 40801, "Ġhypnosis": 38331, "etics": 7735, "million": 25415, "ested": 5481, "epochs": 26721, "Ġperpetrated": 45869, "Ġcoagulation": 45255, "Ġecology": 14269, "ĠPuritans": 41655, "focus": 19333, "Ġfriend": 3289, "gr": 9861, "oosevelt": 13397, "ĠLung": 24593, "ptr": 31691, "Ġregulation": 7943, "Pap": 46381, "fifth": 36663, "Space": 18762, "ĠArn": 20271, "Ġhasht": 38070, "Ġparrots": 41563, "nail": 30182, "ĠNashville": 34904, "Ġwra": 9781, "ĠBeer": 40723, "Ġsockets": 40198, "Explore": 24869, "Ġglasses": 13645, "Ġcompact": 12633, "ĠStatements": 42066, "ĠKay": 28820, "Ġglimpses": 36024, "DF": 5576, "Ġcerv": 13437, "Ġpatents": 20527, "ticker": 47083, "Ġposited": 45256, "Ġtrader": 38173, "formance": 10914, "Ġlst": 36470, "entionally": 32310, "Ġretaliation": 35763, "oper": 5052, "ogly": 17651, "ĠEucharist": 40160, "Ġ>>": 21420, "Ġmercury": 13340, "Ġreturning": 10900, "Walking": 46748, "ĠGuards": 43877, "Ġvengeance": 41257, "Ġcateg": 3555, "delivery": 31625, "Ġfermentation": 19771, "alese": 38864, "Ġbrowsers": 25447, "Gall": 40518, "Ġknitting": 34441, "pletion": 17699, "?âĢĿ": 6491, "chet": 43923, "rite": 16064, "Ġspaceflight": 44715, "Ġrank": 8014, "ĠComprehens": 17029, "Ġconfinement": 30807, "apan": 2935, "solid": 36543, "ounds": 3072, "Mr": 14086, "Ġconditioners": 42659, "to": 1141, "Ġserves": 5860, "agg": 10282, "ĠBLM": 40891, "Ġgrieving": 40231, "Ġcam": 3580, "ĠAdditional": 15878, "Ġopposite": 7011, "ĠMas": 15757, "Ġ_____": 35001, "Ġfoster": 6366, "Ġweapons": 7921, "ietzsche": 34788, "ĠCha": 24657, "×Ķ": 30552, "othe": 5669, "Ġinsurers": 39155, "Spirit": 36107, "ĠAlliance": 15747, "Ġrestricting": 26668, "charging": 40576, "Ġsuspicious": 19882, "ogan": 22525, "ĠAmb": 14314, "ĠSubmit": 39101, "ĠSeaf": 42786, "Ġfermented": 25728, "Ġpact": 41922, "Ġdragging": 37906, "Ġmonasteries": 28868, "Ġinhibitor": 28521, "Ġrpm": 43095, "ĠRussia": 6054, "ilarly": 4705, "post": 5696, "ulls": 32942, "ĠPublishing": 14336, "Ġfeatured": 11364, "$,": 26265, "Ġtuning": 25163, "behavior": 24834, "maps": 26201, "seeing": 39553, "Ġinterfering": 30836, "Ġdredging": 47435, "Ġschoolchildren": 46792, "Ġbrilliant": 12978, "ĠProtocol": 14743, "Ġcurtail": 43208, "Ġfate": 11424, "ĠProdu": 24016, "super": 14174, "Ġdr": 1387, "Ġidealized": 42570, "irie": 16174, "Ġcommunicated": 25670, "Ġmang": 22001, "Ġnursery": 20557, "Ġtruck": 15038, "break": 17653, "arters": 9172, "Ġoint": 35955, "opt": 2912, "Ġtart": 24493, "ĠAccommod": 47709, "ĠAD": 5236, "ĠPOS": 34616, "Carl": 34098, "ĠTake": 7285, "antha": 37198, "Ġlisten": 5872, "Ġbeginning": 3616, "á¹ĩa": 48182, "Ur": 24183, "Ġpatterns": 3077, "Ġcivilian": 16514, "ipy": 15780, "Ġtelome": 34708, "ĠRect": 37087, "ĊĠĠĠĠĠĠĠĠĠĠĠĠĠĠĠĠĠĠĠĠĠĠĠĠĠĠĠĠĠ": 19145, "Ġrecording": 10016, "Ref": 7140, "Ġdiscoveries": 9570, "ĠStraw": 37756, "Ġpsychosis": 34504, "Ġ:,": 21176, "Ġgranul": 46353, "Ġinsignificant": 26384, "ĠOcc": 11213, "Ġmelan": 13973, "Ġidentifiable": 28799, "Ġinequality": 9724, "ĠCAN": 27190, "fus": 49011, "atteries": 41132, "Ġcalculates": 23427, "validators": 36295, "pert": 10890, "ĠBase": 11638, "Ġinvoice": 48686, "fowl": 35263, "ĠSame": 26477, "Ġsounded": 27768, "ooks": 1764, "ondyl": 36391, "onents": 7572, "orship": 11054, "imread": 40089, "Ġguest": 16204, "ĠChing": 46019, "Ġdebut": 34053, "ĠTN": 38661, "Ġresides": 26059, "ĠCin": 30280, "Ġuniformity": 32377, "Ġsurpass": 20126, "Ġelectro": 7836, "Ġtraditions": 5174, "Ġrefugee": 17454, "Ġmashed": 42572, "Ġsettles": 46761, "Where": 9576, "Ġethnicity": 16709, "Ġenough": 2001, "Ġdisconnected": 29558, "Ġlaughing": 26465, "Ġtower": 11637, "ĠNeuro": 11281, "Ġhandled": 15170, "Ġducks": 26077, "Ġminers": 20148, "Ġperhaps": 4012, "sid": 29912, "Ġsolids": 19866, "Ġwhey": 41763, "ĠConsider": 6689, "sugar": 37923, "ĠRV": 40896, "ĠWelfare": 25822, "amoto": 36288, "ĠFame": 40241, "ĠLiberia": 35034, "Ġbrowsing": 21240, "into": 17059, "runt": 23468, "Ġalley": 47969, "Ġâī¤": 38599, "ĠNewsletter": 38349, "Ġradically": 26924, "ĠTownship": 30841, "Ġcompositional": 47200, "Ġdemeanor": 47964, "Ġdeliberate": 19023, "ĠLDL": 23762, "ĠTotal": 16046, "Ġuri": 41018, "ĠFoot": 16740, "Ġduplication": 35143, "ĠJackie": 47077, "ĠSamantha": 48943, "cedented": 12614, "Ġserved": 5019, "Ġlives": 2397, "enson": 21063, "ĠCommerce": 24392, "Ġwiping": 40848, "ĠFarmer": 32786, "Ġproactively": 31440, "aves": 2080, "Card": 25952, "ĠReflection": 31092, "ĠChavez": 49069, "ĠEpisode": 48129, "Ġsphincter": 48644, "oused": 35216, "Ġeff": 745, "ichever": 30108, "Lower": 32556, "about": 10097, "ipur": 41719, "Ġbenzodiazep": 46458, "Ġdisturbance": 18507, "ĠEntity": 41566, "mons": 35212, "aways": 28759, "pip": 13656, "Ġmisuse": 21762, "Ġexquisite": 28418, "Ġarchaeology": 22379, "Ġmovable": 39245, "ousing": 16666, "****************": 16540, "ĠFreedom": 13802, "ĠChina": 3275, "travel": 34866, "quakes": 47098, "Ġmyocardial": 37679, "Ġdestroy": 5142, "COMP": 30383, "Ġregulator": 26257, "Ġfootprints": 25879, "Ġencounters": 13242, "ĠHygiene": 33885, "elman": 39754, "nik": 21599, "orange": 33126, "Ġpauses": 43216, "Ġdeduced": 47378, "Ġoveruse": 30520, "Ġtheses": 35695, "Ġengine": 2327, "Ġmultiplier": 39704, "group": 5606, "Ġlegislatures": 37296, "Ġurea": 36275, "Daniel": 30933, "Ġdormant": 24304, "atto": 26755, "Ġclever": 15355, "ĠMarion": 37714, "ifug": 26592, "head": 2699, "Ġlayer": 4070, "Ġtransgender": 18943, "Ġlaunches": 29941, "ĠMinnes": 12234, "'),": 5111, "ĠAntonio": 19002, "Ġbackups": 41936, "qu": 385, "(\"%": 23901, "ĠComplex": 16466, "Ġgenealogical": 44949, "fathers": 45724, "ico": 4099, "ĠFinland": 17446, "utes": 2562, "ĠCaring": 47884, "Ġshar": 14719, "ban": 2947, "Ġinjuries": 6345, "ĠJur": 26509, "builder": 28075, "Ġleaching": 38890, "Ġpropulsion": 25778, "Ġ'-": 15695, "Ġthirds": 31233, "Ġadvisory": 24763, "ĠDRC": 43719, "Ġhacks": 48574, "Ġoriginated": 12097, "ĠUpdates": 44699, "ĠReturns": 9097, "Ġlest": 35793, "lay": 4437, "Page": 15886, "ploid": 33598, "Ġstdout": 28901, "abstractmethod": 38515, "Ġburied": 9666, "Ġparental": 15843, "unknown": 31295, "ĠDest": 20425, "Ġtooth": 5429, "esley": 46440, "assertTrue": 16619, "Ġclosely": 5076, "plementation": 22932, "ecs": 37420, "Ġvisualizations": 35011, "Ġsimilarities": 11910, "itars": 43061, "API": 16073, "Ġpaying": 9057, "Ġgrant": 4905, "ĠYam": 25455, "ay": 341, "entially": 12339, "ĠGuid": 10346, "Ġbuoyancy": 43932, "Ġeas": 1367, "Ġnexus": 42250, "Ġbegins": 5634, "arco": 49109, "Ġpairing": 30835, "Ġcarp": 14727, "prim": 15917, "Ġerg": 25641, "Ġinconclusive": 45745, "Ġslope": 13761, "Click": 11705, "Ġfemale": 4263, "utch": 7481, "Ġneck": 7387, "Ġnozzle": 19928, "viations": 32708, "Ä±": 20335, "total": 9712, "Ġfinite": 17710, "Ġdisappears": 30124, "Ġfled": 14464, "Ġdpi": 44731, "ĠCharacteristics": 23370, "ftime": 25304, "Asia": 47018, "Ġreversed": 19275, "ĠParkinson": 15778, "Ġedge": 5595, "Ġrespectful": 16503, "Ġtaught": 5309, "Ġsaltwater": 35165, "agia": 36551, "core": 8174, "Ġcab": 8607, "ĠHumb": 42204, "Ġplenty": 7568, "ĠMosaic": 43954, "ĠOpportun": 15716, "Ġpainful": 10045, "Ġpowering": 40594, "Ġventricle": 38600, "pty": 25083, "ĠOpp": 11666, "Ġlaughter": 17224, "Ġconvey": 7218, "ior": 1405, "Ġlen": 3858, "Ġproficient": 23094, "ĠSymposium": 34996, "Ġapolog": 21262, "Ġeug": 35530, "Ġcompartments": 35186, "Ġskirts": 45951, "Ġcontributed": 7844, "ĠMathemat": 11822, "ĠGenome": 26907, "Ġmanor": 32024, "Ġcoated": 22344, "ÐµÐ»": 42292, "Ġmould": 21507, "ĠPregnancy": 29112, "Ġinland": 20058, "Ġnovice": 32640, "Ġintegration": 7657, "Ġshortening": 35087, "ĠColor": 7299, "eca": 24875, "uitively": 36769, "ĠDoc": 10377, "English": 14901, "iding": 4088, "Holy": 45476, "Ġnic": 7643, "Ġuseless": 20345, "ĠInterest": 11500, "Ġgamb": 16001, "inge": 15690, "Ġprinter": 11825, "Ġimporting": 29147, "ashing": 3540, "Ġfasc": 3366, "Ġwants": 5988, "ĠInquiry": 33094, "Ġì": 18601, ".'": 6662, "Ġthen": 965, "wx": 26386, "Ġchew": 21976, "ĠHighly": 36458, "Ġflyers": 48149, "Ġbleach": 29923, "ĠEverglades": 39033, "oder": 9140, "Ġtheirs": 26718, "ingo": 30642, "Ġsilvery": 46702, "Ġinventories": 39759, "Shape": 31266, "Ġtrigger": 9098, "Ġreplicates": 47590, "Ġscarring": 30862, "ĠButterfly": 38748, "================================": 12704, "Ġobservation": 7928, "Ġdesignated": 10044, "Ġdynamic": 6639, "EG": 9944, "interpretation": 37950, "Ġbacteria": 3939, "ĠDance": 22053, "numbers": 28707, "ĠEthical": 22874, "Ġcmds": 45656, "ĠAdoption": 40244, "Ġbasement": 23841, "Ġgalvanized": 48618, "oyle": 28979, "Ġcutters": 43722, "ATES": 47533, "Ġproblem": 1732, "brid": 8409, "ĠColumbus": 18176, "itarianism": 25570, "cod": 24733, "std": 10491, "Ġessays": 8434, "Ġbis": 29498, "mbling": 39880, "operability": 36943, "Ġalloys": 27845, "Ġpurely": 15272, "Ġbegun": 10176, "Ġcurves": 16014, "accel": 42259, "Ġculp": 21215, "Ġactivating": 34697, "ĠConfucian": 46712, "ĠFu": 18555, "Ġbicycle": 19018, "Ġarising": 15187, "ĠSweden": 12598, "oos": 16694, "BO": 13950, "ĠASP": 34027, "ĠMeasurements": 45320, "Ġarise": 8120, "ĠHav": 28325, "Ġch": 410, "tles": 47619, "Ġawareness": 4425, "Ġdirects": 30302, "rowsiness": 43159, "Ġestate": 9757, "REG": 30113, "Ġaud": 2869, "ĠDiagram": 32694, "geon": 22335, "Sel": 38274, "Ġreposition": 48656, "ĠP": 377, "inav": 19720, "Ġtones": 18190, "Ġparables": 47763, "Ġmother": 3379, "Ġstaying": 9286, "geries": 20738, "Ġcommend": 42182, "ĠResponsible": 35722, "Ġqualify": 18274, "Ġchange": 1363, "Sun": 22791, "ĠCass": 15404, "Ġstole": 37823, "Ġpim": 46000, "Ġrepellent": 37202, "Ġallowed": 3917, ",),": 34162, "ĠSocrates": 25361, "Leon": 45472, "ĠPortable": 48664, "Ġdisagree": 10069, "Ġbought": 10897, "Ġcardi": 6191, "Ġflossing": 30754, "Best": 21707, "Ġtargets": 7591, "trip": 36928, "foreign": 39066, "Ġdevil": 24478, "Ġlaunching": 20937, "source": 7032, "ĠPhoen": 18957, "Ġfibrous": 31935, "Ġextraord": 7910, "military": 39295, "aned": 33853, "aux": 13981, "Ġlowered": 19400, "Ġlogos": 32077, "Ġat": 418, "Ġrelying": 13683, "Ġvortex": 34693, "Ġvolts": 28794, "Integer": 17497, "IT": 2901, "Ġocular": 33625, "Ġjumped": 25437, "Ġancestry": 21075, "Ġhesit": 42311, "\\''": 35453, "Ġcores": 21443, "bladder": 30635, "Ġspinach": 20752, "tab": 15999, "essential": 26173, "Ġexpenses": 10612, "Ġstewardship": 17360, "ĠCrescent": 46847, "Ġsunflower": 28991, "Ġantibiotic": 13464, "ĠFam": 5407, "Dialog": 30783, "Ġovulation": 30145, "Ctrl": 40667, "Ġunquestion": 41495, "ĠMonitor": 17897, "æĪ·": 42729, "secure": 24101, "ĠParticipants": 21072, "Ġformulations": 30143, "Ġeye": 3323, "æİ": 33185, "Â£": 37564, "former": 20714, "Ġallocation": 14851, "Ġspirits": 12687, "Ġspare": 20172, "Ġopens": 10573, "Ġspokesperson": 37455, "ĠUbuntu": 36042, "Ġmathematical": 7132, "server": 10187, "ifts": 22401, "Ġconfluence": 40693, "Ġdrip": 28654, "TRAIN": 45264, "Ġpept": 19384, "ĠSnow": 16200, "ers": 366, "dv": 46154, "Ġqual": 4001, "ae": 2296, "ĠStructures": 27981, "Ġembraces": 36282, "Ġtall": 6780, "rea": 16132, "ĠLists": 41861, "Ġassembling": 37373, "ĠON": 11464, "Ġentertained": 33726, "Ġana": 16143, "Ġcools": 33381, "Ġuncovered": 18017, "Ġhumiliation": 41265, "Insert": 34657, "ionine": 48029, "Ġinflamed": 25122, "ĠExpectations": 39946, "ĠPharmacy": 48470, "Ġtrainers": 29939, "a": 81, "ĠLiterary": 22743, "ĠFrancisc": 34467, "Ġatom": 11776, "<|reserved_special_token_34|>": 49225, "cret": 3138, "another": 30378, "Ġinver": 13439, "AN": 2810, "ĠBlocks": 40107, "Approximately": 40384, "Ġscans": 16266, "emics": 31247, "thin": 39200, "agon": 5927, "utable": 17504, "Rub": 39887, "Ġgrasslands": 25431, "Ġmolecules": 6756, "Ġdentists": 25098, "ĠEpiscopal": 36098, "Speed": 33449, "Ġwavelengths": 20518, "Tim": 17170, "Ġgeographical": 10957, "ĠNu": 30289, "Ġjuveniles": 32875, "ĠEMS": 48054, "Ġlithium": 18294, "ĠChiefs": 47462, "Ġsedimentary": 29209, "uther": 9689, "Ġillust": 3788, "Ġjewellery": 42280, "Ġestablishing": 9271, "Ġextended": 6470, "Can": 7306, "NF": 23819, "Ġinspectors": 40811, "Ġbiod": 7694, "ĠStarting": 21468, "Ġprob": 2245, "flush": 32976, "Ġmasc": 44689, "ovirus": 20663, "Ġimpending": 29121, "Ġdec": 988, "Nonetheless": 44911, "steine": 32313, "Mi": 42300, "Ġskating": 30091, "Ġhibern": 29855, "Ġendogenous": 36129, "gap": 31956, "Ed": 7525, "Ġionic": 34940, "MH": 45497, "ĠJosh": 18890, "Ġassistants": 21424, "Ġabnormalities": 16534, "ĠVitamins": 43058, "Ġsyn": 5011, "Ġsteril": 28118, "Ġincontinence": 36182, "Ġaccel": 6681, "ĠIdent": 6452, "oin": 2836, "ĠRussell": 19107, "Redu": 25307, "Oxford": 34553, "optim": 13967, "Ġshift": 6185, "Ġattenuation": 43997, "ĠGPUs": 45742, "original": 10119, "Ġconsuming": 10785, "versions": 30511, "nob": 32870, "adow": 19041, "ĠMonet": 48172, "CHANTABILITY": 43180, "voice": 39600, "Ġlimiting": 11827, "Ġsweetened": 42226, "Ġlived": 4161, "ĠUNIX": 41511, "came": 35324, "ÙĲ": 25694, "Ġamplifier": 28726, "Hem": 45475, "reponame": 10368, "Ġparan": 30897, "FILE": 19258, "ungsten": 35490, "Ġunprecedented": 12949, "Ġantagonists": 48525, "Ġapprehension": 39502, "Ġreductions": 16149, "Ġuncertain": 7024, "glades": 37227, "ORE": 16135, "Ġencaps": 21232, "Ġconflicting": 19812, "acc": 2487, "ĠLund": 36020, "flying": 49059, "Ġvisceral": 38404, "Ġadaptations": 15576, "Ġpoems": 11515, "wings": 46293, "ĠHumph": 36545, "Ġforeshad": 38776, "ĠBright": 25495, "Ġreads": 12927, "Ġ#": 907, "Style": 28384, "ĠDiscovery": 19009, "estead": 25931, "Ġetc": 2686, "Ġresource": 3753, "Ġfacilitated": 19709, "thank": 42094, "ENCE": 20149, "ĠInspection": 39104, "ĠQuantitative": 36802, "Ġindifference": 37530, "ĠPR": 13163, "Ġpackaged": 24691, "Pair": 42153, "trial": 30601, "aque": 21825, "Final": 29288, "Ġsprays": 29720, "Ġpanic": 14455, "whose": 42243, "Ġknit": 40373, "Ġpharmacist": 31578, "Ġannually": 10450, "ĠAra": 15258, "quat": 48077, "cephal": 19739, "Ġtongues": 32921, "ĠThailand": 16704, "Ġlion": 16433, "ĠSomali": 39003, "Ġrosemary": 37047, "feet": 32997, "Ġjudgment": 9507, "Formatter": 34248, "Ġroots": 5190, "dist": 8184, "Ġstamina": 36414, "Widget": 15188, "Ġchloroplast": 46194, "Ġanth": 17737, "Cmd": 42974, "Ġcrashed": 32019, "Cert": 36134, "destination": 29794, "ĠMira": 26918, "Method": 15813, "Ġumbrella": 21946, "arding": 9386, "Ġpatented": 26964, "ĠNil": 47602, "Ġts": 23568, "fact": 2160, "lang": 22599, "Ġstolen": 19725, "<|reserved_special_token_61|>": 49252, "ĠVib": 43408, "Ġindivid": 13287, "curity": 2895, "Ġsocieties": 6815, "p": 96, "Ġheight": 4614, "Ġbriefly": 13099, "ising": 2039, "herst": 46441, "Ġlacking": 14258, "Ġfid": 28436, "iversity": 1295, "Ĉ": 196, "Ġcomp": 503, "Widgets": 22604, "ĠÐ½Ð°": 40610, "ruary": 4707, "Ġvigorously": 30512, "ĠPolly": 48608, "Ġdashed": 44613, "Ġape": 23540, "Ġcrowns": 28823, "Ġflank": 25326, "ĠIb": 46035, "Ġabiotic": 46007, "Ġlegion": 46596, "Ġaffiliate": 32438, "ĊĠĠĠĠĠĠĠĠĠĠĠĠĠĠĠĠĠĠĠĠĠĠĠĠĠĠĠĠĠĠĠĠĠĠĠĠĠĠĠĠĠĠĠĠĠĠĠĠĠ": 42057, "Ġhomeless": 15639, "ĠAllison": 44716, "after": 9110, "Ġclarify": 15228, "ĠMacedonian": 43738, "Bern": 44042, "Imagine": 4792, "Ġvigor": 21853, "Ġalph": 33563, "ĠPlane": 44399, "demand": 30191, "Ġnasty": 28162, "ĠWhile": 2445, "ĠScholarship": 41275, "ĠSomerset": 42235, "conciliation": 35545, "ĠIG": 38623, "ĠPied": 38911, "Ġ.": 1673, "ĠCaucasian": 41323, "}_": 27688, "Ġmetabolism": 10751, "bringing": 33035, "msg": 9000, "aces": 1813, "blu": 39321, "ne": 662, "Ġorganisms": 6896, "utans": 43704, "ulus": 16884, "Ġformally": 15700, "Ġoverwrite": 41905, "Ġpartake": 46131, "ĠYuc": 44853, "ĠCher": 21944, "Ġmodified": 8104, "vel": 532, "ĠRedist": 47318, "istas": 38889, "Ġhandful": 16048, "boundary": 32510, "Ġgrapefruit": 40976, "Ġgoddess": 15059, "ĠAlthough": 3483, "ĠFlorence": 19997, "ĠCommunion": 44135, "temperature": 19864, "Ġnucleus": 14831, "ĠPharmac": 26531, "Ġlust": 29518, "Ġcircles": 11144, "Ġchampions": 24772, "gt": 13626, "ĠCost": 9972, "Ġinterfere": 14527, "Ġoverest": 38184, "ISTORY": 39184, "ases": 1049, "ĠGreco": 43439, "ĠBoe": 47725, "Ġpuzzling": 38512, "Ġbreakthroughs": 23320, "Ġsect": 3174, "ummer": 38937, "Seed": 42961, "Ġmanoe": 45383, "Islamic": 35398, "Ġtricks": 16901, "Press": 18177, "ĠToward": 37666, "Ġfactual": 24253, "âĢ¦]": 24511, "Ġintently": 30779, "Ġox": 3263, "ampsia": 35721, "ĠLighthouse": 42627, "erness": 10494, "existent": 33547, "Ġnobility": 26714, "Ġconstructively": 42347, "nces": 2186, "Ġamputation": 43665, "Ġcoh": 16985, "Ġrim": 25022, "Ġcapt": 2670, "ĠEssex": 35939, "ĠFerm": 36113, "Ġhump": 37587, "umers": 27260, "Ġweighs": 25246, "Ġdownstream": 17488, "Ġtheorem": 22688, "Ġshaped": 7957, "ĠDaw": 26346, "Ġreim": 30001, "Ġsuppress": 15981, "illing": 3422, "Ġpseudo": 28738, "Ġhoof": 42237, "Ġbeer": 12682, "Ġsubs": 7267, "ĠNiss": 46163, "ĠTerm": 15211, "pattern": 19418, "ĠAntim": 49000, "Ġtyph": 25716, "ao": 7006, "Ġpixels": 17218, "Ġideation": 48774, "ĊĊĊ": 16506, "Ġcommitting": 21562, "Activity": 11085, "Button": 15736, "guid": 35074, "isure": 16919, "Dutch": 45001, "ĠMarine": 11847, "Ġconfidence": 6204, "ĠSPEC": 46352, "Ġsm": 865, "Ġpupil": 20185, "Ġincorporates": 18103, "Ġunnamed": 44735, "vag": 30536, "Ġacknowledgment": 43197, "Ġpopularity": 9338, "ĠCors": 49062, "+-": 34592, "ĠVij": 44217, "Ġintros": 23367, "Ġevaluated": 11483, "Ġtense": 16669, "Ġobjectivity": 37689, "Ġanomal": 19194, "Ġpowered": 13147, "Ġoversee": 25148, "Ġsound": 2139, "ĠCambridge": 9558, "Ġequate": 41447, "ĠSNPs": 48545, "ube": 4487, "Ġbranching": 32456, "init": 2563, "Ġexperimented": 33001, "Ġrehears": 29084, "rains": 29353, "Ġcontradictions": 29316, "lid": 48188, "Ġreview": 2523, "Ġsewage": 18740, "Ġthreats": 6952, "Ġjournaling": 33844, "Ġmacrom": 48796, "Ġdeveloping": 2941, "ENGTH": 42283, "Ġbless": 9737, "ĠEnc": 7275, "ĠInterview": 29789, "Ġdecision": 3062, "mant": 20226, "Ġprivilege": 16071, "ĠShirley": 44589, "front": 10826, "Ġrubble": 39102, "athed": 37719, "Ļ": 243, "Ġstrategically": 23357, "Ġjoke": 24021, "Ġcliff": 25959, "Cloud": 22630, "Jo": 36864, "ibility": 1968, "Ġsponsored": 19155, "Ġdecade": 7255, "independent": 32023, "imal": 5018, "Ġminors": 33419, "esteem": 13060, "ĠRabbit": 33950, "warnings": 40980, "imming": 23659, "rent": 1160, "Ġweeping": 47014, "enfranch": 41745, "æĶ": 36694, "Ġfault": 8576, "Ġthrottle": 46613, "ĠControlling": 47855, "js": 19098, "tin": 45343, "ĠRiley": 39242, "ĠJudaism": 15461, "Î¯": 22442, "Acc": 14175, "Ġelaborate": 13992, "istine": 23660, "lers": 6130, "ortions": 23279, "ĠBulgarian": 39644, "Ġfleets": 40181, "stock": 14621, "Ġcartridges": 41603, "ĠFacilit": 45222, "ĠZap": 42693, "fem": 22045, "ĠDSM": 32302, "Ġendeav": 13890, "ĠWalker": 19092, "Ñĭ": 18408, "ĠShips": 44866, "ediatric": 9716, "Ġmetaphysical": 30760, "Ġmund": 23902, "Ġcrust": 12116, "Ġpartition": 15091, "yml": 48317, "cv": 15798, "igma": 8010, "Ġmurd": 21796, "ragon": 16511, "ĠBaby": 20428, "ĠBPA": 28556, "Ġfeels": 7422, "ĠIon": 36017, "appings": 34213, "ismic": 45272, "ĠAux": 48990, "Ġhydration": 24723, "Ġus": 468, "plane": 12758, "elia": 21327, "ĠCases": 31131, "Ġcorrectness": 35685, "chips": 49105, "Ġraw": 5540, "Watch": 20097, "rafts": 45733, "Ġbotanist": 42741, "Ġtemporal": 13716, "Ġnun": 45926, "Ġdecisive": 22156, "Ġweakened": 17018, "ĠWesley": 29678, "printer": 46728, "ĠInjury": 27677, "Ġfixture": 32754, "Ġmag": 3666, "Ġtick": 8531, "Ġsink": 14864, "Document": 24217, "eras": 7640, "------------------------------------------------": 18470, "ĠSami": 47536, "Ġinsightful": 26214, "bash": 44029, "ĠIslamic": 8438, "Ġdeceased": 18733, "Ġexcuses": 42065, "carb": 39684, "ĠIsraeli": 14245, "law": 11490, "ĠCe": 22035, "Ġtherapists": 16385, "ochemical": 13568, "ĠAlto": 45039, "ĠSara": 31234, "Ġbreads": 37740, "Ġcompetitions": 20594, "ĠMasters": 24256, "Ġgastroenter": 39317, "ĠPutin": 37377, "ĠHare": 41493, "Ġcollectibles": 37570, "iotics": 13610, "opard": 16564, "rb": 18790, "ĠCognition": 45305, "Ġexceedingly": 34249, "Ġexisting": 3832, "Ġtypography": 40189, "SV": 16286, "rette": 42540, "Ġobtained": 6238, "Failure": 43044, "baz": 45511, "Ġunlikely": 9522, "ĠProfessors": 48878, "Ġtheta": 24596, "Ġsprouted": 49053, "Ġchase": 27216, "Ġchord": 18001, "erce": 14407, "ĠThese": 1216, "ĠGNU": 28807, "Ġbuilt": 2837, "ĠTags": 47669, "Ġaudible": 39376, "ĠDarwin": 12764, "central": 19994, "ĠRepublican": 13754, "terms": 31901, "MB": 20107, "eor": 10056, "Ġtenets": 26779, "ige": 14921, "Ġcelery": 30360, "Ġherb": 9876, "Ġpatient": 3158, "Ġsecession": 35844, "Ġwhims": 36126, "Ġsecreted": 33868, "Ġbots": 40965, "Ġpollen": 14021, "Ġblood": 1670, "Ġbudding": 26786, "void": 32439, "Ġtrait": 16978, "ĠâĢĺ": 1551, "Ġwiring": 20275, "ĠPlain": 27674, "oken": 21107, "vt": 35038, "Ġkidneys": 14323, "ĠCauc": 21315, "Ġcasts": 34633, "ĠDetroit": 20020, "Ġturbine": 18399, "Ġasking": 5617, "Ġrisen": 20367, "inguishable": 40574, "THE": 15964, "Ġclutter": 33195, "ano": 8123, "Ġcookies": 12834, "ardia": 43984, "Ġestim": 3367, "ĠML": 17933, "lez": 42315, "Ġeffortless": 48500, "Ġsuppose": 15699, "Ġcaptivating": 10033, "Ġlined": 19415, "ĉĉĉĉĉĉĉĉ": 13591, "LES": 32972, "())": 5107, "Ġstuffed": 26664, "Ġdistinct": 4073, "Ġharming": 29971, "ĠHon": 12436, "Norm": 12568, "({'": 20763, "pkg": 33387, "ĠSart": 46931, "ucks": 14880, "minster": 25221, "_%": 27158, "Ġuncertainty": 10443, "ĠInspired": 28416, "Cos": 43385, "Ġdrinks": 9714, "Ġmapping": 10446, "Explanation": 35092, "ĠGustav": 36664, "legend": 22501, "Ġbee": 11426, "rather": 31864, "Ġexponential": 25123, "Ġreinforcement": 19387, "Ġfortifications": 34158, "ĠJar": 36577, "Ġunderwent": 23054, "merge": 20453, "ĠDM": 24108, "Ġnuance": 42663, "Ġcoll": 4064, "zymes": 10401, "Ġmarathon": 35709, "ĠCurtis": 35779, "oded": 8495, "Ġcas": 8828, "ĠAdult": 18841, "ĠComplexity": 41898, "()": 1000, "Ġeyel": 21392, "/'": 19789, "ĠMeta": 20505, "urse": 10942, "ĠAnalog": 37371, "eroids": 21098, "plotlib": 11236, "vana": 40494, "ĠCum": 38005, "Ġtrial": 5992, "Ġrecipients": 20635, "ance": 524, "ov": 749, "annels": 6270, "ASD": 35194, "Ġutensils": 25703, "Budd": 34805, "exec": 9234, "Ġpollute": 41974, "Ġculminating": 26243, "Ġnod": 11509, "Ġacne": 19329, "Ġchapters": 12279, "ĠMirror": 41480, "Ġprophets": 22187, "Ġlex": 19839, "combe": 43817, "ĠOver": 3636, "ĠTrials": 34665, "Ġgreens": 16685, "ĠSeek": 20989, "Ġaquarium": 17179, "ĠElectronic": 19990, "çī": 33913, "Ġtrademarks": 34932, "Ġimplements": 25592, "Ult": 20688, "Ġchanges": 1971, "ĠFascinating": 46238, "Meanwhile": 15797, "Ġcommunication": 2908, "Ġdisclosing": 49043, "Ġvisions": 21064, "ĠSphinx": 46981, "kner": 44820, "ĠTransaction": 47022, "Ġtribal": 13523, "Wil": 28284, "Ġ|": 2504, "ĠMAX": 36283, "registered": 40283, "Ġfacult": 29822, "ĠCorrect": 26800, "moment": 32680, "ĠCodes": 39385, "ĠJab": 43637, "Ġrecognized": 5954, "Ġtoad": 45465, "Ġ\"...": 38956, "Ġpla": 9255, "Ġplow": 45736, "Ġdangers": 11919, "Ġdecre": 3407, "á¹": 11938, "Ġcucumbers": 35701, "âĶĢâĶĢâĶĢâĶĢâĶĢâĶĢâĶĢâĶĢ": 34106, "Ġnonsense": 33266, "Ġcures": 31895, "ĠCrawford": 39293, "Ġchildhood": 6608, "Ġtwins": 22734, "icists": 37132, "Ġbenef": 1600, "Ġmosque": 26327, "Ġarchitectural": 11301, "Ġalgebra": 12302, "æĺ": 22178, "ilate": 27939, "married": 29814, "alk": 1727, "Ġapparel": 42565, "Ġfats": 9152, "backward": 33916, "Ġtempered": 43100, "Ġpigeon": 36403, "MAS": 48329, "Ġthro": 33490, "Ġloads": 13101, "æŀľ": 43774, "ports": 6670, "ĠStreets": 40831, "Ġamendments": 22221, "Ġhybridization": 39445, "Ġtried": 5655, "Ġincorporation": 27453, "ĠNixon": 25238, "Earth": 18458, "Ġinterf": 7406, "Ġrulings": 41915, "Ġtubular": 37832, "Ġvolunt": 5088, "Ġimprovisation": 38043, "Ġtrainer": 25051, "Ġsalinity": 26575, "ĠOrion": 29318, "Ġplans": 4406, "ogonal": 35994, "ployed": 20595, "Ġcomprehensive": 5920, "Ġtranslator": 31077, "ĠEd": 3395, "ĠLoyal": 35633, "Ġsorted": 13156, "Ġcouncils": 25413, "berspace": 37062, "Ġcol": 664, "Ġmeltdown": 49140, "helps": 46228, "Res": 3461, "Ġservings": 29088, "Ġsigmoid": 41594, "Ġwrapping": 27559, "ĠHamburg": 34391, "ogenes": 34663, "Russia": 37563, "Ġimply": 17371, "Maya": 49137, "ame": 513, "ĠSemin": 46071, "ĠHait": 15372, "ĠWorker": 37599, "Mis": 45711, "ĠMead": 24463, "ĠVic": 28776, "Colour": 43572, "Ġphoto": 8003, "partial": 24975, "Ġwrongdoing": 48556, "Ġsquid": 32626, "Ġcapturing": 13737, "ĠSDGs": 44078, "Ġcoded": 28429, "ĠFilter": 27548, "Ġ#:": 37856, "ĠPhillips": 26004, "ning": 1039, "essors": 39051, "Ġvendor": 27496, "Ġseaf": 13508, "rem": 2832, "ĠSARS": 21144, "ĠAlexa": 45076, "Ġdownloadable": 40447, "examples": 25406, "ete": 28394, "ĠBott": 37180, "Ġphenomenal": 39289, "corr": 33559, "ĠBelgium": 17918, "ocaust": 12539, "Ġprev": 6352, "reth": 23379, "ĠGaelic": 34155, "aren": 14177, "ĠChanges": 16691, "Ġminimized": 32451, "ĠOmaha": 43055, "Ġspreadsheet": 26337, "strategy": 33694, "Ġsting": 27081, "Ġosteoporosis": 19321, "Ġcis": 27986, "ervers": 17361, "osystem": 4724, "Ġav": 1113, "Ġcounsel": 8296, "ĠNiagara": 35474, "tics": 10958, "Ġqui": 30357, "oubtedly": 15529, "sponsored": 31090, "ĠTop": 8992, "Ġcardio": 32391, "ĠSister": 42287, "notes": 19359, "ĠLeices": 37173, "Ġcrucified": 41839, "rel": 2181, "Ġshone": 47673, "ĠS": 334, "Ġindistinguishable": 42503, "interest": 14237, "Ġplunge": 40821, "zek": 22120, "Ġlink": 2795, "ercury": 9532, "Ġlambs": 48639, "orith": 4297, "ĠDom": 9156, "counts": 22328, "ĠPrinceton": 18655, "Ġaptly": 48523, "Ġstar": 4870, "ĠRepresentatives": 21912, "Ġremem": 20568, "Alg": 39978, "ĠNich": 15005, "Ġimplications": 6131, "Subject": 26652, "Ġmucus": 21237, "Chem": 39058, "placeholder": 36558, "Ġniches": 35639, "Ġdissoci": 29644, "Ġdru": 48863, "Ġforums": 20942, "Ġcreatively": 21854, "ovember": 4410, "ledge": 1707, "Ġmedicines": 10037, "ĠGuy": 24293, "commons": 35990, "ĠDeb": 18469, "Images": 26311, "Ġdisob": 26133, "Ġastronomical": 21234, "Ġblender": 40380, "Ġdogs": 5046, "dule": 6449, "Ġthou": 17072, "AAAAAAAA": 44843, "Ġtoy": 10976, "Ġdeer": 10752, "Ġretro": 18247, "Ġglycer": 42100, "ĠIncluding": 34020, "ĠPhen": 29555, "breeding": 28886, "Ġspikes": 25289, "Ġclassify": 21711, "HR": 15416, "answer": 11247, "Ġshakespeare": 40278, "Ġpayroll": 40472, "ĠDifferences": 26290, "Ġvolleyball": 49121, "Ġcondenser": 44909, "Layer": 22564, "ĠPav": 29396, "students": 29489, "ĠOperations": 19058, "}{": 15009, "ĠSons": 26571, "System": 18403, "Ġnewest": 22947, "ĠBoh": 32092, "Ġbases": 13021, "GF": 27012, "<row_3_col_5>": 49169, "objects": 10140, "Human": 14917, "ĠSloan": 47601, "Ġhyp": 4015, "ÃŃs": 24128, "ACA": 40645, ">')": 36102, "Ġfam": 1031, "auc": 12100, "Ġphosphory": 41136, "Ġsupernatural": 16393, "Ġvow": 14941, "Ġcondensation": 30009, "Ġdurable": 16770, "<row_2_col_4>": 49162, "Ġbioenergy": 48520, "Ġaccommod": 7512, "ĠNames": 20643, "ĠDataFrame": 26270, "Supp": 12233, "ĠLots": 38982, "Ġmasculine": 28366, "ĠGad": 41111, "ĠLabour": 21619, "Ġeconomists": 21151, "Ġsprung": 44620, "ĠSophia": 35901, "Ġliturgy": 39299, "Ġhave": 457, "distance": 12179, "Moving": 33520, "agnetism": 39897, "onics": 15768, "river": 11267, "shot": 14123, "Ġaccur": 2997, "Ġpriority": 9282, "Ġcytokine": 48452, "ĠWood": 7817, "asuring": 22067, "Ġ?": 9148, "ĠAA": 22805, "Ġtimed": 22520, "Ġcached": 37800, "Ġbroch": 30740, "ĠMd": 44298, "ĠUnderstanding": 4229, "ĠSymphony": 35899, "ructose": 22364, "Ġtrainings": 43037, "Ġfragile": 15725, "Ġsudden": 5814, "Ġobst": 5782, "æĮ": 38444, "adata": 6895, "yards": 24233, "Ġdownward": 18809, "cor": 7033, "ĠFundamental": 32908, "ĠQuint": 47219, "edience": 16753, "ikon": 46461, "ĠFinancial": 13922, "flamm": 10087, "ĠHib": 36952, "ĠNag": 18902, "Another": 4809, "Ġsurveying": 31588, "Ġhouse": 2291, "Ġponds": 19612, "ĠBacon": 30410, "ĠClub": 12053, "redirect": 33139, "Unfortunately": 14875, "Ġballoons": 27326, "Ġtoggle": 43513, "Ġtractor": 34291, "ĠBrainstorm": 43664, "Ġrevised": 14874, "exe": 29687, "ĠChip": 37824, "Ġsug": 10456, "ĠPlay": 8512, "Ġoffending": 37522, "ĠGender": 16559, "Ġspeck": 43446, "Ġmaladaptive": 41034, "oplas": 47714, "Ġcavalry": 22256, "Ġletter": 4386, "Rather": 31971, "ĠRing": 23040, "Ġeu": 29512, "Ġsupercomputer": 44619, "Ġstab": 35620, "ĠGlobe": 33040, "ĠTw": 3701, "assertRaises": 23198, "ĠSparta": 45292, "Ġgeneral": 2210, "ALE": 32977, "ĠSunni": 35625, "Rest": 21892, "Ġmeaningful": 6579, "process": 5005, "Ġcomputer": 2583, "ĠEvol": 38259, "documented": 45197, "ĠProperly": 37109, "utions": 2146, "Ġinsured": 38684, "Diet": 30272, "Ġbomb": 8958, "Ġhydrothermal": 44813, "Ġwicked": 22163, "berries": 11895, "ĠChamber": 21607, "Ġtrigon": 32734, "imi": 35782, "En": 5056, "Ġcls": 12870, "Ġroutine": 7021, "ĠEG": 46752, "rants": 6169, "Ġunderworld": 41849, "Ġunsatis": 38617, "Ġseldom": 21134, "ĠPatriot": 46744, "Ġextend": 8290, "Ġwindy": 42585, "araderie": 23288, "zoom": 38458, "clips": 28265, "sea": 17282, "ĠInvestigating": 40527, "Professional": 41320, "alien": 42021, "ĠFarming": 30868, "agger": 12895, "visions": 39875, "Ġextermination": 41685, "Ġintricacies": 16376, "ancip": 45308, "Ġpreservation": 10217, "arro": 45925, "Ġmod": 798, "Ġhug": 23410, "download": 18595, "Ġsharing": 4347, "Ġdew": 34886, "I": 57, "ĠYourself": 25743, "Ġaware": 2839, "Ġblink": 39889, "Ġtimely": 13863, "Ġcomput": 1720, "Ġcurv": 23533, "Ü": 167, "ĠAdopting": 39805, "osp": 1821, "propag": 34901, "ĠAxis": 31328, "Ġrestruct": 31884, "Ġattire": 32172, "Ġfunctions": 3691, "ĠRy": 26395, "ĠEph": 38096, "reme": 4024, "ĠUzbekistan": 41517, "Ġreject": 6144, "ĠFlore": 16731, "ible": 812, "ĠEvangelical": 48155, "hyd": 8487, "Ġbehaves": 30175, "Î²": 22235, "def": 1604, "Ġrust": 15744, "Ġprotein": 3677, "scient": 17643, "ĠForms": 26567, "inverse": 45588, "ĠRey": 45803, "Ġasymmetry": 40712, "ĠVo": 20253, "Ġisinstance": 7923, "Ġvertebrates": 31209, "Ġclassification": 9782, "Ġnighttime": 29551, "Ġinformal": 13270, "ĠWed": 12284, "Ġdur": 16938, "ĠMilky": 22847, "Ġdeceive": 41445, "Ġspont": 14311, "sters": 10092, "Soft": 22777, "Ġuploading": 48431, "ĠTy": 13045, "Ġpatrols": 48323, "Ġcontamination": 11084, "Ġlookup": 32214, "Ġyouth": 5569, "sub": 4103, "Ġbanished": 48502, "ĠTraffic": 24136, "ĠFra": 20962, "uator": 39268, "Older": 48108, "Ġtotaling": 48725, "idate": 12363, "ĠPul": 18086, "Ġbeings": 7095, "Ġperformed": 4940, "Ġencou": 2436, "ĠSchwartz": 39723, "ĠChain": 27291, "ĠOrigin": 20926, "Ġprohibition": 26181, "Ġannotated": 32254, "Ġbottlen": 38347, "ceph": 34512, "Ġtimer": 23123, "ĠGlenn": 34864, "ĠLeft": 19937, "ĠCareer": 24132, "Ġfantastic": 10216, "ĠBrooks": 30315, "Ġavoidance": 20664, "iliary": 19828, "Ġindicating": 10487, "kas": 47308, "ĠCoh": 43742, "Ġintrig": 8457, "ĠEstimates": 37739, "ething": 1432, "Ġcaric": 35699, "obl": 39327, "ĠHunt": 14118, "esity": 6706, "Ġhypoth": 22398, "warming": 37645, "Ġfollows": 5558, "elim": 44932, "iots": 22038, "Menu": 29293, "Ġstunned": 45358, "Ġbatter": 4812, "Ġattentively": 37230, "cleaned": 40055, "Ġrecogn": 2094, "ĠVa": 25806, "Ġexplanation": 7718, "ĠKingdom": 8378, "Ġaggravate": 45492, "Ġmines": 14710, "Ġhex": 17967, "Ġadolescents": 11141, "symbol": 21167, "EV": 16091, "Ġevidences": 47541, "linear": 13032, "Ġproves": 18485, "Known": 40845, "Ġmundane": 25815, "ĠSurve": 23076, "ĠPacific": 6125, "ĠIg": 18116, "Ġclerical": 47156, "Ġgaze": 21724, "ĠIV": 9536, "ĠIth": 46960, "Ġstruggled": 15906, "Ġtect": 23992, "rio": 27691, "ĠChannel": 16771, "ĠBuddha": 12535, "uations": 39212, "Ġembarking": 25895, "Ġmonsoon": 30351, "Center": 28406, "revision": 35017, "ĠWWII": 24221, "Ġplot": 5049, "Ġartefacts": 34944, "Rose": 44124, "ĠMexican": 10132, "Ġ[": 933, "ĠWra": 48742, "Ġcooperate": 25566, "Hop": 31086, "Ġcontempt": 30989, "Ġ''": 10922, "ĠFinally": 6887, "Hello": 19556, "Ġpolice": 5997, "uint": 20954, "atomy": 45623, "Ġcommemorated": 44763, "altern": 29516, "ĠGuitar": 47534, "Ġphilanthropic": 43135, "Ġpollutant": 36512, "Ġarchaic": 36610, "Ġsoul": 8664, "otech": 30227, "Ġexhib": 4306, "ĠBesides": 14552, "Ġanger": 9846, "Ġhybrids": 24705, "ĠURL": 12107, "Ġcracked": 27132, "placed": 27010, "Ġlign": 33653, "Ġindustries": 6686, "Ġpendulum": 35436, "Ġcaul": 26461, "Ġdotted": 33697, "Ġscary": 16725, "Ġdoll": 5661, "ci": 605, "Ġshirts": 35429, "Ġfigurative": 33807, "atin": 4474, "elected": 44332, "Ġmaximizing": 24757, "Ġconcentrates": 34272, "Ġhooks": 29363, "Ġbail": 28575, "ĠUg": 19037, "hemical": 6727, "Ġmoves": 7488, "rencies": 16039, "esty": 14077, "Ġdonation": 20592, "Ġlogistics": 21153, "Ġquirky": 37142, "Ġsphinct": 45604, "ĠDIS": 36079, "ĠNaval": 19393, "Ġreporters": 28786, "iece": 21244, "Ġwrinkles": 33329, "Args": 28769, "ĠToolkit": 44530, "Ġtoile": 12366, "Ġresidency": 34181, "Ġdung": 40351, "rical": 4113, "ĠForce": 9618, "ĠService": 5538, "Ġpys": 43343, "////////": 38442, "ĠÂµm": 41406, "Factor": 42351, "Ġcarbohydrates": 12389, "C": 51, "Ġintertwined": 24427, "classified": 36368, "Ġlife": 1029, "ĠR": 428, "Ġought": 12618, "Ġantiqu": 30186, "Ġfeeder": 31049, "ĠPol": 3360, "isa": 14765, "opolis": 46921, "customer": 31678, "Ġoriginality": 35930, "Ġmyst": 7746, "ĠStone": 12662, "plus": 12383, "ĠShopping": 47607, "located": 35051, "Ġbrows": 14252, "Ġmob": 4142, "Ġindefinitely": 31817, "Ġscout": 30693, "Ġcirculate": 30705, "Ġsolidarity": 16447, "Ġnode": 5994, "Ġwearer": 40102, "rip": 6696, "ä½¿": 45583, "Ġattempted": 11120, "ĠCurt": 26078, "ĠDrag": 28846, "ĠIdentities": 49133, "Initially": 37627, "species": 15385, "ĠSlav": 23369, "ggish": 37272, "ĠNaomi": 45242, "reek": 8141, "ĠQuestion": 15232, "aty": 46158, "Ġwiki": 26894, "ungal": 25990, "Choosing": 34416, "opa": 17351, "Ġchicks": 26572, "zech": 14767, "mitting": 45677, "Ġdisappro": 38296, "Ġemer": 47743, "Ġhypersensitivity": 44727, "ĠPorts": 37680, "Ġbreeze": 29999, "Ġeut": 48847, "Ġparentheses": 38612, "Ġconserv": 9715, "ĠFau": 43238, "Ġapplic": 1779, "Ġtreatise": 33531, "Cand": 38185, "Four": 19622, "Ġunexplained": 30794, "Ġjustice": 4765, "Ġhighway": 17603, "Ġenduring": 12340, "ek": 1846, "Ġbioge": 35220, "Ġcinematic": 47285, "Ġprayed": 34602, "ĠDescriptive": 46145, "Ġtsunami": 22524, "Extract": 34683, "Ġtranscends": 26945, "Ġfueled": 22784, "®": 123, "ĠSwan": 32783, "oeconomic": 13364, "Ġactivate": 19078, "aa": 11510, "Ġunclean": 41063, "Ġclockwise": 34786, "Ġplaques": 30127, "irators": 40466, "Ġaesthetically": 39467, "particularly": 25692, "reddit": 41045, "kit": 14838, "folk": 22662, "giving": 13619, "ĠSimpl": 41549, "Ġperse": 33576, "Ġgrappled": 45722, "Ġrecovering": 22429, "Ġsanitizer": 47753, "Ġforward": 3703, "Ġpacket": 15976, "Ġdrow": 26296, "<row_4_col_6>": 49176, "ĠWy": 15108, "ĠGDP": 13407, "proto": 14156, "<|reserved_special_token_3|>": 49194, "Ġbalcony": 45941, "}'.": 23964, "ĠTensor": 22017, "arab": 42705, "Ġaffecting": 7053, "Ġsensor": 8764, "Ġjud": 3457, "Ġcompleted": 5371, "ĠFranc": 6042, "Ġglorious": 27788, "ĠStam": 48352, "Ġbreastfeeding": 17252, "Ġepithelium": 39852, "ĠHaw": 7271, "ĠFil": 9257, "ĠHistoric": 15617, "Ġprepares": 23262, "Emer": 28662, "Ġrou": 12969, "<|reserved_special_token_53|>": 49244, "colm": 25001, "TY": 11573, "Ġbeetles": 19814, "whole": 36311, "ĠMock": 29253, "ĠGas": 14537, "Ġdishonest": 41288, "ĠSk": 5471, "Ġtariff": 33132, "atur": 3821, "Ġpsychologically": 38800, "ĠLimits": 41751, "condition": 17315, "ien": 6522, "pract": 46359, "Ġstirring": 27441, "Ġlining": 14807, "Ġcurrency": 9850, "alam": 20462, "Ġmath": 4119, "Ġphotons": 23794, "fetched": 49037, "ribes": 19544, "Ġcoastal": 7915, "ĠMeat": 29760, "Ġequilibrium": 14437, "ĠEmphas": 23769, "Ġeyes": 3497, "ophysical": 24824, "Ġhelps": 2311, "ves": 1099, "ĠLibraries": 23582, "ĠSecure": 26701, "Ġmailing": 34916, "defense": 30015, "liner": 41784, "readable": 38138, "ĠEqually": 49098, "Ġclouds": 10695, "ĠEnough": 45519, "ovan": 37354, "Ġwhirl": 37879, "CI": 12921, "hene": 35610, "osome": 27034, "Ġpred": 1965, "Ġrebuild": 22005, "each": 22386, "ĠCP": 10198, "Ġvor": 44749, "ĠShows": 37482, "Ġhalls": 27357, "Ġupd": 5241, "Ġreceived": 3656, "Ġupwards": 19469, "dates": 19154, "IK": 31639, "Ġallele": 33318, "ĠMonroe": 30662, "roleum": 14889, "idxs": 36771, "Ġupcoming": 14561, "ĠAramaic": 42432, "Ġingredient": 11997, "Ġstewards": 34889, "Ġspectrometer": 41806, "Ġignorant": 27934, "para": 39879, "ome": 465, "ulator": 15057, "Ġcons": 687, "Ġinjecting": 33226, "Ġrespondents": 16108, "Ø±": 20602, "Ġnn": 10571, "ĠSiem": 47255, "Ġpoints": 2876, "Ġdisastrous": 24548, "afts": 32321, "Ġhandy": 14164, "Ġtransfusion": 38598, "Environment": 17088, "ĠCastle": 14887, "ĠTul": 33878, "Ġrepeatedly": 12840, "Ġsuperstition": 40850, "ĠStress": 15577, "LD": 16284, "row": 720, "Ġjava": 35445, "Ġorganizing": 11764, "Ġtroubling": 31759, "EMA": 12425, "ĠWatson": 21632, "Ġivory": 26471, "ercise": 11533, "ĠHeat": 16708, "Ġremedies": 15296, "Ġgranular": 31270, "pus": 12300, "fect": 2877, "Ġmackerel": 47199, "Ġpp": 4774, "ĠCalcul": 13262, "pone": 47846, "opens": 40566, "athan": 11902, "Ġadministrator": 21102, "types": 7899, "secondary": 24985, "XY": 32891, "Ġcapacitors": 36475, "Ġinforming": 24841, "ĠDharma": 37484, "Anderson": 47132, "Ġvault": 24439, "âĢĻ:": 40820, "cause": 35731, "ĠCombined": 32061, "yter": 44451, "ĠNov": 9505, "ĠKings": 15578, "Freedom": 40428, "Ġimage": 2443, "Ġunintentionally": 36252, "Ġspleen": 30808, "Ġscrum": 35697, "ĊĠĠĠĠĠĠĠĠĠĠĠĠĠĠĠĠĠĠĠĠĠĠĠ": 3337, "ĠĊĠĠĠĠĠĠĠĠĠĠĠĠĠĠĠ": 23004, "ĠHur": 13232, "ulates": 12280, "RH": 42177, "Ġspirit": 3330, "Ġshapes": 6146, "Ide": 28412, "ĠGuang": 38124, "ĠRun": 13823, "ading": 8200, "ĠĠĠĠĠĠĠĠĠĠĠĠĠĠĠĠĠĠĠĠĠĠĠĠ": 43709, "Silver": 45994, "broken": 30048, "Ġflown": 28057, "Ġminor": 4835, "xia": 20745, "Ġnearing": 45160, "Ġtbsp": 43510, "ĠWeimar": 47056, "Ġtil": 21977, "ressive": 4601, "Ġsenior": 8299, "Ġmanipulation": 13411, "Ġsandwich": 25940, "Ġflourish": 20620, "ĠCurriculum": 17457, "ĠInjuries": 36032, "Ġbombard": 31662, "Ġadvancement": 15918, "Ġcommenced": 28805, "Ġgradual": 15941, "ĠAbstract": 19881, "Validator": 38200, "Ġneutralizing": 48130, "ĠChurch": 4222, "Return": 14362, "Ġconventions": 14570, "ĠKaz": 19987, "ĠJudith": 35059, "Ġvalid": 3993, "Ġspecialists": 12922, "Ġpermitted": 12738, "interested": 37474, "Ġscrutiny": 20883, "Read": 6340, "Media": 27247, "artes": 31789, "Ġ{})": 38310, "ĠAssessing": 33715, "rong": 3458, "Wall": 35934, "die": 27765, "ĠDirect": 5639, "ĠFate": 47551, "ARS": 14254, "VM": 20939, "Ġquot": 14498, "properties": 17024, "Bre": 17486, "monary": 14219, "Ġcontribution": 8356, "Extension": 39142, "Ġplight": 29236, "numeric": 40680, "MAR": 32161, "ulu": 20501, "iriam": 44374, "mark": 4260, "Ġopenings": 22552, "iform": 5867, "dev": 6301, "prising": 18414, "alamus": 32773, "Ġcuisines": 37405, "Ġglued": 36644, "Preventing": 41501, "urous": 25572, "playlist": 48299, "afrost": 34097, "ĠTower": 18669, "Ġvisitors": 7803, "linked": 23001, "Ba": 35704, "Ġpostage": 48443, "ĠMile": 37513, "ĠRAD": 45909, "ĠAviation": 28482, "lic": 709, "Ġcabinets": 36563, "inative": 39111, "reason": 23759, "Ġraster": 35902, "families": 41857, "Ġnowhere": 19885, "Ġaged": 8933, "iscrim": 37690, "oad": 1412, "Ġhook": 17708, "delete": 10334, "Ġquer": 31562, "Ġhp": 40756, "ĠCritical": 15485, "Ġmobility": 10944, "Ġig": 33496, "Ġelection": 8339, "ĠMexicans": 39719, "ĠUNICEF": 30853, "Medic": 45791, "idad": 23541, "ĠSER": 38146, "har": 11130, "ĠMohammed": 32935, "ĠGiov": 30659, "Ġfreeze": 17701, "ĠKimber": 36620, "Ġconfrontation": 28646, "Ġgalaxies": 13102, "ĠMC": 20575, "Tuple": 32962, "Google": 9448, "Ġshots": 15036, "yal": 8254, "Ġslash": 40048, "ĠMons": 28565, "failure": 33330, "Ġemitter": 39137, "Ġcounselling": 35144, "ols": 9950, "éĿ": 45834, "Ġphosphorous": 45335, "ĠTheodore": 26915, "never": 15661, "=[]": 30208, "Ġsown": 38374, "ogene": 12811, "ursor": 46732, "Ġal": 360, "Ġarms": 6548, "Got": 42594, "clusions": 8800, "Ġorganisations": 13540, "exchange": 37362, "uls": 5658, "oa": 9677, "ĠPush": 30786, "uffs": 24482, "Grand": 29975, "angled": 39563, "backends": 43034, "amines": 25147, "ĠSeminary": 45369, "itics": 13923, "Ïģ": 13583, "ĠGall": 10667, "Ġtherapist": 13449, "iser": 14793, "Ġparishes": 40550, "Ġtopped": 33178, "please": 38984, "ĠHolland": 21980, "zzo": 47771, "ĠFY": 39386, "Ġomega": 13960, "Ġoxal": 41405, "uper": 45464, "Ġdeformation": 26233, "ĠPermission": 38822, "Ġimposition": 45286, "ĠNOT": 9695, "ĠHimal": 21917, "Ġprovision": 10496, "Ġaimed": 6006, "Ġtires": 20381, "ĠIts": 4781, "aws": 7776, "Ġasleep": 16394, "actin": 44539, "ĠTolkien": 35619, "ĠZak": 46425, "ĠVictoria": 13309, "ashi": 19515, "ĠInfect": 16158, "Ġeveryday": 6389, "Ġsaturated": 14691, "ĠTr": 4372, "Ġtab": 10147, "ĠLipp": 45450, "stad": 25689, "Sep": 27142, "Ġwitty": 43773, "ditional": 5959, "Ġpioneered": 31652, "åĮĸ": 45662, "ĠLia": 48274, "atter": 2494, "Reader": 29315, "ocated": 11230, "ĠBrid": 20259, "ions": 438, "ĠSilver": 18684, "iris": 29809, "Ġtrading": 10263, "ĠImages": 16197, "Ġcsv": 17856, "uter": 20566, "riors": 16745, "upuncture": 15724, "Ġluggage": 47161, "omous": 10653, "á": 172, "PV": 11793, "ĠHealing": 27832, "Days": 38697, "wrong": 34852, "Ġdecades": 4756, "Thank": 19503, "<|reserved_special_token_9|>": 49200, "HER": 23100, "Bur": 25758, "ĠFernando": 41990, "Ġlooph": 43381, "ductors": 36485, "Ġbiochemistry": 34662, "rupted": 30540, "Ġcasino": 39961, "Ġshareholder": 46853, "Ġthyroid": 10778, "Ġleprosy": 47596, "ĠToronto": 15500, "USE": 23134, "Ġplanet": 3925, "Ġspan": 9108, "Ġplugin": 26518, "Ġclues": 12487, "ĠColomb": 16869, "ĠThree": 8696, "estim": 34792, "Ġyoungsters": 28663, "Ġdelicate": 10619, "Ġnegotiate": 19348, "wash": 28599, "ĠStick": 27439, "Ġmerged": 21284, "ĠCircle": 23924, "ovina": 43760, "Ġdrank": 28970, "ĠAir": 5097, "umar": 48140, "Ġrepaired": 25589, "Ġtoddler": 24035, "ĠForest": 8504, "ĠTrotsky": 43344, "Ġirregularities": 37676, "Past": 37754, "Currently": 21593, "Ġpeg": 41182, "illery": 15440, "medical": 31119, "Ġorn": 13634, "Ġmounting": 18575, "ĠBing": 42095, "reliance": 34819, "ÏĤ": 18624, "Ġseasonality": 44833, "Ġprodu": 796, "Ġdex": 33110, "ĠOk": 16765, "Hal": 45666, "Ġvolatile": 19616, "ĠGuest": 44115, "hero": 12026, "essment": 20896, "Ġassistant": 11173, "Ġhomologous": 46168, "Ġheral": 38025, "ĠRivera": 46735, "Ġrefer": 3386, "Ġinsulated": 31133, "Ġequation": 8345, "Ġdust": 6588, "Ġingen": 18686, "Ġelections": 10947, "Ġcinnamon": 23866, "ĠSo": 1644, "Ġsynonym": 34963, "Ġthis": 451, "Ġstrengthening": 13415, "variable": 18025, "<|reserved_special_token_48|>": 49239, "innitus": 23969, "Permission": 45508, "Ġsuite": 21383, "Ġaxons": 48231, "Ġauthorization": 27109, "hemistry": 9800, "Ġsavanna": 48794, "--------------------------------": 4085, "Ġchimpanzees": 30902, "Ġturn": 1607, "ica": 4127, "raming": 37968, "ization": 1237, "cellular": 17499, "ĠNULL": 32308, "ĠVegetable": 39276, "ĠBerm": 31185, "ĠPlace": 9373, "Ġelif": 4698, "axial": 39890, "Ġcurrently": 4112, "ĠHF": 36428, "ĠBlow": 48195, "LENGTH": 48824, "Ġreflects": 9404, "ennes": 40761, "ĠSpread": 26247, "Ġstability": 7004, "itan": 7514, "River": 46860, "ĊĠĠĠĠĠĠĠĠĠĠĠĠĠĠĠĠĠĠĠĠĠĠĠĠĠĠĠĠĠĠĠĠĠĠĠĠĠĠ": 27924, "filling": 44161, "ĠExpl": 4700, "zo": 15294, "iators": 37734, "Ġregulate": 10405, "å±": 39310, "ributions": 22032, "Raw": 32775, "Ġmucosa": 41739, "ĠAI": 5646, "Ġempirical": 13115, "orry": 31998, "ints": 22696, "araoh": 18695, "Ġlightweight": 19319, "Ġrenewables": 27023, "Ġnargs": 39369, "åĽ¾": 46309, "Ġhers": 43957, "Ġcirculatory": 31781, "ĠURI": 46445, "Ġenjoyment": 17836, "fft": 30822, "Ġamphibious": 43897, "ER": 1754, "ĠXIV": 37054, "Ġcoercion": 31271, "Ġcultivation": 15086, "Symbol": 28308, "ENCES": 48687, "ĠCERN": 44095, "ĠASEAN": 40531, "Ġnotebook": 20797, "ĠMn": 47741, "eger": 34731, "Ġtaxonomy": 31301, "Ġreplaced": 7233, "Authent": 34488, "urable": 9802, "ĠKell": 41720, "blem": 9499, "ĠSecrets": 35182, "Ġflooring": 35129, "ĠArchaeology": 26287, "Ġallegory": 40710, "ĠProm": 10193, ")!": 31050, "idy": 22982, "ĠCree": 45800, "ĠFollow": 7720, "Government": 28573, "ĠFeminist": 34507, "Ġsewer": 25332, "rat": 6095, "ĠIntern": 2510, "ĠAbility": 39140, "++": 11444, "7": 39, "Ġcrowds": 21159, "tp": 29344, "quer": 17772, "antom": 36357, "Ġvenues": 25813, "Ġvital": 4334, "ĠWorkplace": 36969, "Ġabstract": 7545, "Unique": 43102, "Ġcompetency": 29175, "ĠSEO": 30421, "Ġsync": 24877, "Ġist": 43424, "Ġestuaries": 41324, "hz": 42165, "bola": 18016, "Ġveto": 35170, "contaminated": 45970, "ĠYeast": 48923, "effic": 12529, "Ġtold": 3783, "ĠQu": 3069, "Ġresilient": 15048, "pleted": 17619, "Tre": 39778, "Ġillustrated": 12043, "Ġsuper": 2076, "Ġvisit": 3048, "Ċĉ": 3354, "Ġthy": 13987, "roughly": 48993, "TEXT": 39486, "Ġdebt": 7620, "Ġbrave": 12833, "ĠJobs": 26598, "Ġmutual": 8597, "ĠPreventing": 36119, "Ġloved": 5732, "ogo": 31005, "Ġcolloquial": 41557, "bid": 15686, "ĠEfficiency": 27043, "ĠSalad": 44990, "ĠBaptism": 44079, "Ġleaders": 2990, "ĠIntroduce": 32630, "Ġcompile": 24162, "Ġsper": 36206, "Ġadmission": 15520, "ĠRockies": 47959, "ancouver": 21067, "Ġlutein": 48822, "Ġolds": 34971, "subplots": 31978, "rion": 44950, "Ġoperates": 13662, "tan": 14542, "Ġafflict": 34999, "ĠRemoving": 40646, "Ġinclusivity": 14256, "ĠLibya": 28360, "ě": 212, "ĠBod": 23521, "ĠJazz": 31823, "Ġretic": 40370, "nering": 31658, "Ġhinders": 45723, "Newton": 47379, "RAW": 42634, "Ġimpairs": 47189, "ç§": 37145, "Ġalternately": 47151, "bai": 25539, "primarily": 48342, "Each": 10313, "Ġcontent": 2627, "Ġlastsum": 35540, "Ġtartar": 35715, "Ġhelping": 4307, "spaces": 41123, "Ġsuc": 6315, "iline": 30083, "neut": 48224, "move": 15467, "Transaction": 44090, "ollow": 5157, "variables": 21360, "Ġgrapples": 41187, "quez": 31804, "Ġunt": 1597, "ĠDesert": 18283, "hum": 16839, "hydration": 36740, "U": 69, "ĠVitamin": 10954, "Ġstrom": 46182, "ĠLebanon": 22425, "Ġachieved": 6551, "ĠWalk": 13436, "ĠUnit": 4730, "Captain": 45278, "Ġreptile": 36402, "Ġindirect": 9985, "Ġmobil": 15222, "rolled": 8931, "Ġembra": 5021, "Ġrealizes": 31910, "Ġtutors": 31703, "chan": 2410, "Ġraped": 42109, "Ġvind": 41884, "appointed": 47104, "ĠSystem": 3829, "ĠBanks": 25057, "Ġbadge": 34215, "Ġdiscretionary": 46234, "Ġcrisp": 27272, "ĠPhysiol": 44320, "Ġsurface": 2376, "Ġcan": 416, "ĠParliamentary": 40974, "Ġusers": 3629, "Ġpert": 14520, "ution": 860, "Whilst": 42443, "ĠCBC": 43926, "Ġbiologist": 21799, "erg": 881, "Ġhardy": 24384, "Ġviolate": 26599, "Ġinvitation": 23362, "Ġprotocol": 6529, "Ġruined": 30499, "Native": 26692, "INK": 27889, "Ġretrieving": 43616, "BF": 31643, "erable": 18542, "ustaining": 39452, "Ġdryer": 33413, "without": 17983, "Ġleve": 40854, "bohyd": 28163, "Ġprotection": 3542, "Ġvase": 40985, "zzi": 41477, "eight": 24258, "Pict": 45299, "WAR": 29719, "med": 3328, "ĠKush": 44396, "verse": 2111, "ĠBec": 25714, "asing": 1817, "ĵ": 237, "ĠRash": 41472, "ĠPak": 44514, "Ġvariants": 15234, "Ġtracker": 37608, "Ġattaining": 35549, "Ġexhaust": 8926, "inary": 2233, "ĠWitch": 35772, "Ġtwe": 15450, "ĠUSSR": 25195, "Ġparadigms": 26313, "computers": 37297, "Ġanyone": 4325, "ĠâĢľâĢ¦": 30444, "ĠKrishna": 26981, "Ġscipy": 21195, "Ġmillimeters": 33567, "san": 30388, "Ġcit": 3064, "Normal": 20828, "Ġundiagnosed": 41584, "Ġpaddle": 28667, "Marc": 37303, "ĠZen": 24933, "gen": 1639, "ĠFar": 10110, "}'": 18292, "ĠGeoff": 31521, "ĠMicrob": 26179, "ĠInstitutional": 39749, "ĠExchange": 17809, "Ġsatellites": 13131, "ĠArbor": 36856, "Ġgroups": 2119, "xc": 14630, "Ġcompanion": 14914, "Ġautism": 9799, ":\")": 31819, "Ġauto": 9083, "Ġbowl": 12505, "Ġadult": 2490, "ĠÂ£": 10257, "Ġadjustments": 13323, "Ġinterconnectedness": 28475, "ECH": 34477, "ĠGav": 41828, "Ġtitles": 11762, "Ġregimens": 33942, "Ġpassionately": 40512, "Ġcreek": 27263, "Tools": 31448, "aksh": 29906, "Ġaway": 2025, "ĠRNAs": 41656, "ixel": 32206, "Australia": 30877, "Ġice": 3908, "Ġpour": 18244, "Ġemployer": 13563, "Ġmorality": 13951, "Ġindiff": 25290, "Ġdive": 4696, "ĠJoan": 26027, "Ġthroat": 10772, "Ġrespect": 2265, "ressed": 4908, "etra": 43184, "UDE": 47008, "Exploring": 22663, "Ġgorillas": 37239, "Ġverified": 21548, "Ġcuriosity": 7093, "Ġphi": 35753, "Ġdramatic": 9184, "ĠShow": 11890, "tk": 19000, "Ġrealism": 18415, "Ġexpulsion": 35487, "ĠElis": 46815, "istency": 34791, "Ġcompacted": 46287, "Ġfluently": 47678, "ĠBias": 39512, "Ġspons": 11378, "Im": 2777, "Ġtraced": 13969, "Ġlacks": 19303, "Ġundisturbed": 34945, "Ġcontrad": 10973, "Ġphysique": 48974, "iffe": 32038, "Ġpractising": 44886, "Ġinfrequent": 45783, "Ġfestivals": 16410, "Ġspawning": 30240, "ĠLanguage": 6959, "ĠVice": 20605, "ĠElizabethan": 41802, "Ġfee": 13276, "ĠWonder": 25368, "Ġproprietary": 25507, "Ġsearching": 10622, "Ġcivil": 3181, "ĠPP": 29513, "at": 261, "Ġpope": 25679, "<|reserved_special_token_50|>": 49241, "Ġcash": 8270, "Ġdependent": 8300, "Ġmaybe": 5196, "Ġharder": 8643, "Ġsupervise": 33548, "ĠNeo": 30022, "Ġpyl": 21047, "trace": 20495, "Init": 16412, "hops": 10096, "Ġsucceeding": 31470, "ĠMacc": 47511, "ĠTurkish": 13769, "feat": 29019, "similar": 24432, "ĠTraditional": 13553, ">\")": 43900, "ted": 1132, "None": 3482, ");": 4258, "ĠHow": 1073, "ĠBur": 7235, "Capt": 32612, "Ġnewspaper": 10059, "Ġquint": 29419, "ĠJorge": 48397, "Ġoh": 24368, "Ġviolence": 4737, "ĠØ§": 47141, "ĠWhat": 1812, "attrib": 39929, "Ġperiodical": 48145, "ĠContent": 15872, "Ġinterpreter": 28269, "harata": 47573, "ĠFen": 34582, "ĠCSS": 25298, "ĠCapitol": 26849, "Ġprolong": 10505, "ĠCurrently": 16086, "Ġenjoyable": 14216, "Ġpolymer": 13979, "acting": 22214, "yer": 9676, "Ġsector": 5716, "ĠĠĠĠ": 289, "isher": 5384, "ĠTrium": 48768, "Ġintox": 30937, "Ġdishon": 25504, "Ġsupra": 33361, "ĠThousands": 31343, "Ġpinch": 31375, "Ġprocure": 23718, "pylob": 48512, "Ġinnov": 2992, "Ġbutterfly": 18071, "Vector": 26888, "Ġafforded": 27609, "oggy": 48681, "lu": 1374, "Ġlate": 3008, "Ġexpires": 43187, "Exp": 17960, "Ġreflecting": 10329, "angle": 6935, "Ġspectrometry": 40736, "Ġpages": 5158, "alpha": 13433, "anda": 6976, "Ġgastric": 23600, "Ġpillow": 33833, "obal": 1815, "(\"-": 25587, "itively": 32497, "Later": 24790, "guard": 25036, "Sort": 48762, "rosive": 35058, "ĠDrought": 41559, "say": 22313, "Ġmolars": 44761, "Ġbonsai": 48219, "wise": 3271, "Ġaugment": 24938, "cost": 11386, "ĠTVs": 47039, "Ġund": 3423, "ĠPulitzer": 43487, "Ġbuyers": 19925, "Ġtreacherous": 32487, "Ġlemonade": 19848, "rugu": 34283, "ĠProblems": 17328, "Ġtailor": 22605, "ĠArsen": 40954, "ental": 1417, "Ġscarce": 17323, "Ġmaintained": 8424, "particip": 32008, "Ġbearings": 29690, "Ġchallenge": 3775, "ĠAssessments": 41035, "Ġintroduces": 14928, "Ġentertain": 7471, "aptic": 26135, "Ġquery": 8520, "Ġlodged": 45370, "etti": 27909, "ĠBarton": 39391, "actual": 26286, "ĠSchne": 35003, "ĠPepper": 43748, "ĠTechnical": 17022, "ĠYukon": 40234, "Ġaggravated": 43368, "CREATE": 38965, "Ġplacing": 10482, "wild": 22135, "Ġhospital": 5625, "Ġhoning": 28967, "orph": 7240, "Ġdeliveries": 34570, "Ġfilling": 11135, "Ġresurg": 28673, "vector": 16714, "Ġnephe": 29613, "ĠEssentially": 25097, "Ġmemorial": 17278, "digits": 37307, "Ġornate": 45351, "idates": 26394, "Ġstatement": 4814, "Ġmisconception": 31590, "Ġpockets": 20087, "Ġagricult": 3664, "ĠYear": 8445, "Ġum": 26969, "ĠImportantly": 35826, "amming": 31546, "oult": 12715, "ĠAugustine": 24018, "ĠISP": 43196, "Ġcover": 3114, "Ġgout": 30059, "ĠLus": 43756, "scriber": 46037, "Ġreversing": 34772, "Ġreconstruct": 15517, "Ġcity": 2240, "Ġsometime": 23030, "Ġmessage": 3714, "angered": 9082, "ipation": 11744, "ĠMonica": 43001, "ĠScripture": 17658, "Ġbook": 1863, "ĠTeacher": 14432, "Ġrecommendation": 12185, "ega": 9005, "Ġsupervision": 14265, "ĠDid": 9725, "ĠSleep": 12877, "lymp": 9894, "Ġmi": 11488, "ĠGer": 14822, "%)": 8402, "Ġspines": 28810, "Ġglitter": 40105, "ĠSoutheast": 14373, "ĠFocusing": 30429, "lightly": 43782, "Ġbirthdays": 45917, "ß": 170, "Ġdisl": 37866, "solve": 33773, "/%": 22953, "TV": 27620, "Ġreservoir": 12206, "Ġprizes": 29225, "Ġflexible": 8686, "Ġslicing": 36875, "Ġcrop": 6429, "ĠYan": 23635, "Ġscanned": 29148, "ten": 813, "ĠLynch": 37545, "ancy": 3270, "Ġdiving": 10939, "Sl": 17423, "ĠNV": 37461, "onent": 8930, "Ġslightly": 5359, "Ġserving": 6992, "Ġdominance": 17978, "Ġbureaucracy": 31551, "heumatic": 45474, "ĠPNG": 47163, "Ġpropositions": 32272, "Ġactiv": 1162, "ĠMark": 5068, "ĠLaws": 18482, "agn": 1480, "Ġtrim": 15414, ")/(": 39851, "ĠDaily": 13001, "Ġcurriculum": 6194, "á¹ĩ": 28272, "Ready": 37517, "Ġworldwide": 4969, "Ġamyloid": 31751, "ĠScout": 25541, "Ġsuspects": 26909, "ĠMahar": 27739, "ĠTu": 17566, "Ġawe": 27456, "Ġstain": 15270, "ĠConf": 4458, "icators": 33424, "Ġattached": 7064, "Ġpathologist": 43803, "Ġsynthesis": 11755, "Ġpredecess": 19167, "Ġnoted": 5332, "ĠInquisition": 44194, "ĠAttribution": 26229, "Ġsund": 34755, "alcoholic": 46674, "ocate": 11003, "ortun": 1579, "ĠBD": 39215, "Ġsmallest": 13341, "roe": 23049, "Ġbunk": 33928, "dos": 45963, "Ġvacation": 17584, "Ġmal": 4382, "leigh": 43464, "Ġdod": 45528, "ulling": 44219, "ycin": 28554, "Ġsemantics": 35243, "Ġstricter": 30640, "ª": 120, "static": 10150, "Different": 21616, "Ġembarked": 22080, "ĠINTER": 32869, "CAM": 39776, "Ġteenage": 21591, "pandas": 41176, "idd": 1760, "g": 87, "ĠDynam": 13652, "umed": 22815, "Ġevangel": 23452, "mala": 23835, "idan": 38589, "Ġpouch": 35993, "German": 19851, "Ġlifting": 17168, "ĠAlgorithms": 39186, "Ġdisheart": 48199, "Print": 20230, "oft": 20872, "Ġpesky": 40556, "caption": 46433, "ĠIsab": 33966, "ĠWindows": 8868, "à¤®": 35090, "matrix": 9842, "Ġgreet": 14477, "Ġbench": 13544, "Ġinstructor": 13334, "Ġplas": 44300, "Ġsheltered": 34742, "Ġranging": 8064, "Ġvirtualization": 40780, "mb": 2237, "|'.": 25404, "Ġdraw": 2634, "Ġdiscussions": 6085, "Ġflag": 7048, "Ġneighbourhood": 27315, "cutoff": 48359, "Ġtaxation": 20712, "ĠAnaly": 10626, "Ġ'/'": 37675, "ĠLee": 9308, "ĠFight": 33432, "()]": 24648, "omon": 12255, "kens": 11603, "Ġmorn": 39086, "Ġfal": 21043, "itial": 41981, "identified": 26382, "azy": 16899, "Ġproduce": 2690, "inking": 2011, "ĠBones": 43031, "Ġcast": 5044, "Ġstroke": 7994, "ĠBCE": 15023, "ĠBrisbane": 40259, "Ġconfidently": 18732, "ĠHormone": 44927, "ĠHort": 27415, "ombs": 38187, "Ġmeant": 4972, "Ġtornado": 25007, "ridor": 47975, "Ġobscured": 37413, "Ġserpent": 27476, "Ġgoldfish": 47037, "Ġnumerous": 3824, "ĠPromote": 35397, "Ġoverview": 9912, "Ġcustomer": 7742, "Ġcategor": 11767, "Ġtigers": 29869, "omsky": 46830, "ĠOffer": 22708, "({}": 46845, "chie": 2021, "Ġthor": 5772, "Ġclassifications": 30358, "Ġmythology": 14566, "Ġharvests": 33614, "ool": 751, "Ġinspection": 14789, "ĠSession": 24908, "According": 5449, "pose": 2594, "vote": 42089, "oke": 5050, "di": 8115, "Ġfung": 13416, "ĠDubai": 43215, "phan": 18566, "Ġculmin": 17512, "Ġdisclosure": 22985, "Ġstub": 19242, "already": 47944, "ĠHabsburg": 44128, "Ġclotting": 30793, "Ġpathogen": 19770, "Ã¬": 44730, "kl": 7959, "Ġalcoholism": 29931, "ĠTask": 15600, "Ġincludes": 2978, "Ġports": 14796, "ĠIan": 27106, "ĠVisual": 11589, "tainer": 14384, "ĠQuiet": 47130, "Ġanim": 1543, "Ġtoilet": 15668, "Ġunhealthy": 14301, "ĠToday": 4104, "ark": 792, "Expected": 39981, "Building": 20115, "alid": 15594, "Ġpediatricians": 45872, "Ġunheard": 39544, "CODE": 33208, "Ġunre": 16409, "Ġfeasibility": 24956, "Ġfuture": 1774, "ĠPad": 22237, "ĠManagement": 5827, "ĊĠĠĠĠĠĠĠĠĠĠĠĠĠĠĠĠĠĠĠĠĠĠ": 16997, "ction": 557, "Ġpluralism": 41156, "Ġceremonial": 25702, "chapter": 42895, "Ġterminology": 16883, "Ġhelmets": 29003, "_\"": 46671, "Ġdeletion": 31311, "Ġimpacted": 13840, "ĠNob": 10408, "Ġnight": 3163, "Ġheartbeat": 25210, "Ġhandles": 18819, "Ġrash": 16599, "ĊĠ": 3805, "=\"#": 46429, "ĠLucas": 33466, "rypted": 36132, "Ġmorphological": 25829, "ĠAlphabet": 34586, "look": 14757, "Ġprogen": 27130, "isors": 40520, "Ġinf": 834, "High": 12192, "ise": 769, "Ġconsiders": 15164, "Ġs": 262, "mberg": 37554, "Ġusability": 34738, "hao": 32605, "Ġmiserable": 32706, "Ġfilename": 11157, "Ġnoqa": 17626, "ĠYe": 12987, "ĠCarm": 25339, "Ġexpects": 22506, "ĠProtect": 14283, "Ġpar": 1280, "Ġblogging": 43261, "Ġ()": 27145, "ĠPiedmont": 46570, "ĠPredictor": 43543, "Ġcolleges": 12564, "Ġpoisoned": 36064, "Ġcriticism": 10083, "Ġdisappointed": 22893, "Ġdialog": 13418, "Ġprematurely": 32893, "Ġwww": 7679, "Ġviolations": 17289, "ĠGlobalization": 42394, "Ġcirculation": 10041, "Ġremodeling": 44432, "ĠCauses": 19075, "Ġbesides": 15411, "ĠKingston": 38626, "ĠTak": 26763, "Jewish": 23505, "ĠJo": 14186, "ĠAcademic": 17070, "âľ": 38083, "atten": 42434, "Ġantifungal": 46653, "ellington": 29406, "arty": 44180, "Ġsurroundings": 10882, "X": 72, "ĠAaron": 24694, "intellig": 36418, "Ġfoul": 28060, "Ġartistry": 28513, "Gold": 22090, "Ġutmost": 28382, "ĠDrain": 38291, "ĠBios": 34767, "Ġexpanding": 9283, "isot": 38888, "URRENT": 45940, "Ġorders": 9112, "Ġpolar": 9489, "acteria": 16258, "inspired": 29221, "Ġrealise": 24476, "ĠLauren": 49078, "PLE": 46720, "Joseph": 29504, "cycles": 30397, "afka": 35432, "ĠElders": 48432, "ripp": 19682, "Ġvit": 3507, "ahs": 33013, "utely": 8234, "Rot": 37204, "Ġenem": 5934, "ĠOliver": 19219, "Ġwildfires": 24670, "Ġls": 37380, "ĠZh": 13127, "ĠCDC": 12068, "ĠAlien": 43734, "Ġunp": 38305, "Ġunanimously": 39921, "passed": 41294, "ĠPrincipal": 27223, "Ġinvestigating": 13623, "Ġgli": 45804, "uhr": 48448, "ĠÐ´": 33427, "ophys": 20056, "Ġdoorway": 41644, "Ġdocumented": 10728, "?),": 41630, "Publication": 25241, "Ġitself": 2581, "ountered": 10294, "third": 14370, "hausen": 46508, "BIT": 43547, "Ġthinning": 29904, "wait": 14006, "Ġmummy": 46314, "code": 4635, "ĠAN": 4934, "abspath": 27813, "Ġsensible": 22999, "ĠMB": 18930, "profit": 10291, "Ġmicroscopy": 22176, "Ġbehavioural": 23854, "ĠLevine": 46306, "Ġventricular": 32628, "ĠFrontier": 34111, "ĠPtolemy": 40391, "cember": 4305, "appropriate": 12994, "aru": 41147, "Ġdiscarded": 21343, "Ġadvises": 29378, "Ġdefendants": 34989, "Ġhull": 23634, "sych": 2145, "ĠSalmonella": 28648, "ĠCity": 4206, "Ġrectangles": 37384, "ĠFig": 11680, "otted": 20244, "ĠMy": 3361, "Ġnumerical": 12141, "poly": 19044, "ĠDept": 36840, "Ġfueling": 29271, "bery": 22609, "Ġriots": 28274, "ĠActivities": 15304, "ĠBecker": 44288, "ĠGregory": 21473, "ĠAmsterdam": 23289, "atti": 40138, "point": 3154, "Ġblister": 36553, "Ġoverload": 21226, "Ġbiased": 22703, "roud": 8854, "orts": 1875, "ĠUsers": 21626, "anking": 39950, "weights": 14008, "Parse": 39538, "ĠJS": 38751, "Ġtapes": 38810, "dise": 29062, "akening": 26923, "Ġglass": 4433, "ĠWing": 26637, "ĠMich": 5159, "ĠHomeland": 42956, "ĠHung": 12524, "flower": 16537, "ĠHapp": 21433, "Ġfranchise": 28315, "ĠSugar": 21269, "convers": 48785, "ribing": 17959, "eas": 25380, "itle": 2791, "ĠUSE": 30481, "Ġzodiac": 39217, "Texas": 39106, "Ġcollapsing": 40525, "Ġadjective": 24970, "Ġshadow": 13155, "Ġhated": 33376, "Ġare": 359, "ĠModerate": 42446, "igl": 43030, "ees": 4123, "Ġresists": 47674, "Ġcomplain": 22413, "anning": 18808, "ĠÏĢ": 25143, "Ġcalories": 8747, "Ġposts": 9845, "ĠDelving": 39273, "ĠInstancePreprocess": 48047, "Ġlights": 7751, "æĸĩä»¶": 48506, "Ġmethanol": 40809, "ber": 593, "Ġendometriosis": 42176, "Ġpropagate": 29762, "Ġprized": 30147, "ognitive": 12942, "ĠZel": 45916, "atu": 38556, "Alice": 7356, "Ġcarot": 23887, "Ġactors": 11064, "Ġzoon": 42644, "rn": 36793, "Ġadministr": 7046, "Ġchasing": 30787, "Ġfurniture": 12122, "aturated": 16941, "dead": 23496, "obiles": 24425, "Ġspaces": 5600, "Panel": 37529, "Ġearns": 38668, "erences": 3649, "Ġhumility": 20196, "opsies": 36509, "Ġaspiration": 32817, "Ġmilitar": 33611, "Ġprerequisite": 32541, "Ġpollution": 5206, "Ġshoots": 23202, "callbacks": 48731, "judgment": 42724, "AW": 36025, "Ġsoutheastern": 23739, "ĠPatterns": 23125, "Ġopp": 1383, "Level": 15363, "Ġlunar": 14594, "ĠAud": 11033, "ĠNetworking": 42609, "ĠNetworks": 21413, "Ã©n": 25288, "ogenic": 8850, "Special": 21841, "Ġstem": 6046, "Ġdors": 19664, "SSL": 40939, "Ġblacksmith": 38688, "Ġauster": 47027, "Ġdimensions": 8213, "deal": 32852, "ĠCoo": 40046, "ĠLaTeX": 38631, "Ġgoverned": 16935, "Ġlocality": 31370, "who": 11634, "Ġrear": 13401, "Ġbolst": 27309, "ĠMusic": 9778, "Ġirrigation": 11034, "Spanish": 29536, "Ġinflux": 24851, "avit": 48118, "Ġinterviewing": 33846, "ulsion": 12003, "ĠTimeline": 37399, "Ġperipher": 13009, "Ġgenerate": 5051, "Ġrugged": 25663, "ĠWise": 28358, "Ġauction": 23250, "ĠThank": 15465, "Ġglimp": 19570, "on": 258, "sole": 14435, "Sty": 25150, "Ĺ": 241, "Ġscorp": 41532, "Ġrelic": 21991, "ĠNy": 22973, "skin": 24637, "Ġfollowed": 3922, "song": 35926, "acific": 5624, "ĠRL": 37031, "Ġrevisions": 24989, "Ġexcer": 16327, "waves": 27708, "Ġcounts": 11002, "ĠÐ¡": 45564, "Ġspill": 16927, "structural": 40053, "selves": 1865, "Ġwebsites": 7976, "Recomm": 27378, "ĠEvere": 29571, "Ġsupplier": 21671, "setattr": 40328, "Ġscra": 16638, "Ġentitlement": 46470, "ĠPalae": 44922, "ĠRepeated": 46132, "Ġfortunately": 46651, "urer": 23232, "Ġgarment": 25196, "Ġstatues": 20250, "asive": 6328, "ĠHale": 30949, "ĠMahayana": 48467, "ĠFacebook": 9252, "ich": 485, "Ġdeflect": 48477, "Ġshouldn": 10606, "Ġcovenant": 20645, "ĠBak": 22109, "Ġsmallpox": 28865, "Ġveil": 36473, "Nothing": 32842, "='": 2069, "oris": 40237, "Ġowns": 22247, "ĠGrain": 43938, "Ġcunning": 33011, "Ġcomposers": 24734, "+)": 34764, "Ġneurom": 29050, "ĠProblem": 15509, "Ġtail": 5193, "Ġcornea": 30021, "ĠBrand": 16831, "DL": 11018, "ĠAdmiral": 23303, "ections": 24568, "Stone": 41047, "Ġauthorship": 23467, "ĠFilters": 46303, "ĠLeh": 34200, "ĠProto": 37883, "Ġresorts": 36088, "Ġfatigue": 9587, "ustom": 2440, "Ġaggregated": 42350, "ETE": 31060, "Ġdisgu": 22607, "ĠDescription": 18688, "ricular": 14397, "ĠLam": 18003, "Ġcher": 10106, "Ġgraduate": 7424, "Ġsqueezing": 40183, "ĠMiz": 44537, "swith": 18331, "Ġtransmitters": 42010, "ocracies": 25279, "ologia": 37077, "ĠCul": 27058, "ĠSound": 14758, "Ġdiffering": 17547, "ĠEngine": 6059, "ĠSpeak": 29081, "function": 6607, "Ġreservoirs": 22064, "Ġexclude": 18121, "allocation": 48745, "vol": 7332, "}}": 17859, "Ġchromos": 10385, "izabeth": 9013, "Ġinterpreting": 16702, "Ġcostume": 27824, "nd": 268, "Ġresurrection": 20830, "enet": 29179, "Ġsmoother": 26901, "ĠMugh": 30054, "Inflamm": 47473, "Ġglycogen": 37629, "unch": 3704, "Ġgraves": 23163, "Ġvandalism": 46198, "fuel": 18977, "Ġhotspot": 46239, "\\_": 13516, "ĠAccountability": 37326, "erest": 1279, "values": 6347, "Ġrugby": 43087, "Ġmathematician": 23078, "Ġcosts": 3499, "edged": 24844, "Ġconfigured": 23709, "Ġepsilon": 35592, "Equals": 30909, "iac": 12569, "ashington": 4193, "ĠCoalition": 23683, "akers": 4797, "Ġchanging": 4340, "ĠUnivers": 10951, "Ġmicrowaves": 45196, "Ġaerodynamic": 40098, "middle": 22876, "ĠAJ": 33442, "aton": 23230, "Link": 18481, "Ġprolif": 16309, "ĠTheod": 19910, "Ġstudios": 34566, "British": 22251, "ĠBridge": 13480, "DOT": 47664, "Ġpessim": 35018, "onation": 30034, "Ġyeast": 12827, "Ġcomparable": 13217, "Ġerect": 12188, "ĠSoc": 26218, "perture": 23449, "Ġhed": 17857, "YPE": 31848, "Ġeverlasting": 40444, "Ġsister": 10243, "weekly": 47481, "asia": 15312, "ograms": 16134, "Ġmantle": 23422, "Ġqualifying": 36249, "Ġintegral": 10021, "Ġparticipant": 15634, "elfare": 8262, "ĠFurther": 4020, "Ġtimet": 38628, "Ġcompetitors": 16031, "Ġcurtain": 34008, "ĠHerod": 25736, "Ġelected": 9069, "ĠColon": 10741, "ĠH": 407, "Ġraised": 5489, "Ġdeals": 10711, "Ġuses": 2925, "Ġ...,": 44221, "ĠBig": 8095, "Ġplasm": 34242, "Ġperforming": 7691, "Religion": 42526, "heon": 38060, "assadors": 36552, "Ġversatile": 15154, "assertIsInstance": 48899, "Ġgrey": 13917, "arthen": 35240, "iums": 47767, "inches": 31128, "Ġdiarr": 11137, "Ġcland": 44361, "Ġexists": 5961, "Ġfrequent": 7722, "usually": 15022, "éĩı": 48387, "Ġredistribution": 36974, "adic": 17698, "osph": 7079, "Ġdesigners": 10284, "R": 66, "Ġfert": 4625, "layout": 15027, "Ġreceptive": 30671, "Ġrealization": 19272, "ivol": 46806, "iratory": 7343, "mathbf": 33918, "Ġbacked": 18216, "elly": 11052, "ĠEnvironmental": 6383, "NESS": 31204, "Ġdistances": 9510, "Ġparked": 41239, "sudo": 40799, "Ġepidemi": 33993, "Ġpitfalls": 26661, "Integ": 13154, "aleigh": 42537, "Ġanus": 36426, "Austral": 20709, "ĠSocieties": 35142, "ĠIde": 9349, "creating": 42915, "Ġencryption": 15066, "bread": 27303, "ĠKle": 20460, "Ġprobes": 25193, "SIM": 39308, "ĠSR": 22998, "ooking": 2088, "ĠMastery": 48258, "Ġthighs": 37891, "Key": 5579, "Ġovercoming": 22303, "jib": 32034, "ĠBuddhist": 11979, "ĠHead": 9413, "ĠAgency": 8640, "years": 17907, "Ġdi": 801, "Student": 28329, "ĠWarn": 46617, "riage": 5319, "Ġes": 1599, "Ġfonts": 19053, "Ġcreate": 1464, "Ġoffset": 10497, "ĠConfederation": 33058, "alsa": 37071, "ĠWORK": 48476, "package": 18491, "Christ": 12748, "cled": 38780, "sson": 25586, "Ġt": 252, "license": 30711, "Ġcontributes": 8719, "luence": 25633, "Ġpupp": 12359, "clide": 26604, "ĠFront": 12599, "rums": 36811, "AP": 3872, "Ġkilometers": 12091, "Ġcystic": 34895, "Ġbuds": 19691, "tz": 14499, "Ġlaminated": 47208, "heavy": 36160, "maintenance": 46489, "Bus": 40557, "idding": 24471, "Ġreaffirm": 37160, ".\"\"\"": 7996, "inate": 3463, "Ġbal": 2543, "nt": 399, "/\",": 38886, "Sports": 46082, "Prob": 27007, "ious": 711, "Ġtrench": 27361, "ĠCancer": 7730, "hb": 27716, "iolet": 13659, "arbons": 25013, "Ġdigital": 3182, "ĠDul": 38732, "Ġbruising": 41037, "ĠREF": 36045, "ĠNebula": 48759, "Ġheirs": 32671, "Ġcaption": 29892, "oz": 10012, "ĠBurma": 26406, "ĠFeet": 45899, "Ġwedding": 18338, "rism": 44391, "Ġseek": 4811, "graphs": 38297, "COVID": 36200, "Ġbays": 38316, "Ġconsultants": 30057, "Ġnos": 39060, "Ġmaxim": 3933, "ĠCB": 17852, "ĠIdentifying": 18936, "ĠBlockchain": 30413, "rouse": 38160, "Ġemits": 31380, "ĠBend": 31544, "wear": 19083, "ĩ": 225, "merce": 14910, "Legal": 40752, "ĠNone": 1943, "ushing": 10934, "Ġjoining": 12146, "Ġoriginal": 2798, "Oper": 15015, "Ġlarval": 29431, "Ġunrestricted": 37215, "Ġworkbook": 36593, "----------------------": 48340, "Ġdisputes": 13191, "ĠSecretariat": 38011, "ĠHod": 28883, "ĠOt": 15631, "Ġconcent": 3306, "rab": 4183, "adaptive": 32960, "rer": 16863, "ĠFolk": 27844, "ĠNicholas": 19545, "rameworks": 44910, "Ġsymbols": 7349, "Ġfunnel": 33053, "venile": 8804, "ĠPriv": 18707, "Ġdetergent": 37843, "jk": 44688, "ĠPharmaceutical": 36589, "iosis": 30996, "ĠLent": 29574, "udging": 40580, "because": 17587, "Ġadul": 12769, ")**": 14353, "Ġdictator": 36350, "ĠInvestigation": 29421, "PP": 14142, "Ġband": 5975, "ĠSomeone": 24882, "Ġantiseptic": 41994, "sn": 13015, "Ġfinance": 9999, "tidal": 46061, "Ġlectures": 13857, "ĠCommunists": 38450, "Ġcompromises": 39459, "ĠLog": 8969, "çĶŁ": 43293, "Gram": 43889, "Ġbrewing": 27563, "Ġloans": 12245, "ĠLutheran": 31123, "Ġaftermath": 20761, "Ġtides": 27485, "ĠPerman": 30607, "Ġdescribes": 6601, "ih": 7402, "Ġff": 38337, "Comparison": 48718, "fting": 9634, "LO": 6426, "ĠCad": 25347, "Mult": 13896, "killing": 48348, "ĠHyper": 17649, "Ġros": 21359, "Jim": 39083, "acs": 23293, "Ġyours": 14690, "Ġdise": 1291, "ĠAgainst": 17795, "Ġelem": 37394, "lements": 6438, "Ġsided": 40220, "ine": 462, "res": 375, "filters": 19958, "Ġlizards": 28235, "ĠRebecca": 31584, "Ġtk": 22388, "Ġxx": 34023, "dtype": 16659, "ĠCommon": 6047, "ĠSexual": 20895, "thought": 32853, "Ġleveled": 44419, "istic": 1847, "ĠBMC": 36515, "Ġallocate": 22311, "Ġprairies": 40623, "ĠPlan": 4873, "Ġpmid": 48095, "ĠSuccess": 12723, "Ġspir": 8477, "cut": 8692, "ĠViking": 24623, "otene": 37582, "Ġnuclear": 5147, "staticmethod": 16715, "peak": 26103, "Ġevergreen": 27103, "Ġcampuses": 32247, "Ġstressors": 22095, "Ġsen": 5896, "ä½": 18645, "Ġsat": 2643, "Chief": 32637, "Ġ(`": 30502, "Ġdeter": 16465, "Resource": 18000, "vr": 30728, "ĠAyurved": 25216, "ĠSovere": 35444, "ring": 2277, "Flu": 29422, "Ġgrounds": 9941, "ĠGr": 9171, "Ġinterpol": 22041, "Ġaffection": 17417, "ĠConrad": 38610, "Ġdebug": 19855, "untime": 16292, "Ġturb": 8415, "gently": 32367, "hera": 42456, "Ġsociet": 4244, "Ġdismay": 44750, "Camp": 32126, "Ġgalactic": 38002, "Ġinfluential": 9594, "Ġanesthetic": 34161, "ĠIncreases": 45566, "ĠIVF": 39555, "Éª": 34058, "prod": 31605, "ĠCanon": 28502, "imp": 10250, "ĠLud": 22009, "Ãł": 16739, "ĠPerformance": 15990, "Ġdivisions": 14102, "Ġslight": 11682, "Ġsequel": 41382, "Ġrecourse": 40018, "Ġcollage": 36617, "Plan": 23296, "tele": 33313, "apor": 10114, "odiac": 31720, "Would": 26001, "ĠTraining": 10478, "Ġpatent": 11299, "ĠCas": 17709, "Ġimprovised": 48996, "ĠDesigned": 33038, "Ġunivers": 4338, "Ġwas": 436, "Ġextrem": 4179, "Ġterrain": 12979, "Ġcont": 498, "Ġexisted": 9557, "Ġnormalization": 32124, "ĠRoc": 15837, "ĠHb": 47987, "ĠEco": 24535, "Ġischem": 31263, "Ġ\"[": 24562, "IRE": 45477, "Ġradicals": 18604, "ivalence": 42405, "Ġperv": 19497, "ffy": 28142, "ĠMarcus": 30685, "Ġbrutal": 20145, "Ġhears": 27504, "Ġexpanse": 33780, "some": 11246, "Ġhumankind": 27812, "Ġfragmentation": 26099, "Ġglowing": 26538, "ĠSoul": 30837, "Ġproceedings": 16199, "Marg": 32316, "application": 16841, "Ġwrit": 1067, "uren": 42221, "Ġ`_": 45059, "regions": 35615, "ĠArbit": 46205, "Ġprofessions": 22954, "win": 5544, "ĠStatistical": 23578, "Ġfamous": 4248, "Ġunattended": 40390, "Ġeligible": 13940, "ĠIR": 17995, "Ġcouple": 6075, "ĠMapping": 26665, "Ġairport": 17678, "ITT": 46465, "Bas": 14825, "ĠNAD": 37671, "Ġscam": 38432, "Ġvom": 11994, "čĊĠĠĠĠĠĠĠĠĠĠĠĠĠĠĠ": 8301, "Ġdeafness": 44327, "GIS": 27705, "Ġcapillary": 35339, "ĠVI": 17376, "WISE": 44624, "ĠAyurveda": 34456, "Ġhawks": 42857, "ĠAuthorities": 42938, "msgs": 46349, "Summer": 34386, "idi": 21482, "Ġanecd": 23276, "Ġsuggested": 5613, "ĠMinneapolis": 34337, "Ġshowcases": 24807, "ĠEye": 16772, "omyc": 43676, "à¥": 9310, "×ľ": 31838, "ĠUtil": 14187, "cutaneous": 36914, "ĠPA": 14355, "Ġlibrary": 4971, "away": 11408, "ĠGreenwood": 44154, "ĠMut": 20675, "ĠChristianity": 8065, "Ġentom": 33830, "ĠNBC": 43281, "ĠDai": 42748, "Login": 42058, "Introdu": 30649, "Bo": 23641, "researc": 38872, "Ġabruptly": 33732, "ĠMove": 8669, "Î¿Î¼Î±Î¹": 47347, "ĠJing": 48683, "Ġbankrupt": 21065, "moving": 24367, "Ġmeteorological": 33246, "drug": 28836, "ĠLeakage": 29190, "rograph": 32470, "Mich": 22252, "Ġfederal": 4251, "Ġsecondly": 40381, "Ġadmin": 11931, "SI": 9114, "array": 4282, "ohyd": 8482, "Ġmarginal": 8390, "Ġauthorities": 6790, "Ġveterinarian": 17515, "Small": 20910, "Ġmeticulously": 27262, "Ġoptimum": 21035, "Ġhaul": 33678, "ĠDet": 6440, "Ġcalculations": 11219, "Ġcolonialism": 20204, "Â®,": 42366, "Ġnumber": 1230, "ĠCalcium": 29210, "Ġinspiring": 10892, "ĠOverall": 18813, "'].": 10002, "ĠStevenson": 37510, "Ġdroplet": 47856, "asy": 7265, "Åĵ": 34493, "Ġwanting": 15356, "Ġrights": 2387, "ree": 640, "Ġprovide": 1538, "ciples": 3109, "Ġbaptism": 23509, "aeda": 43527, "Ġcomic": 13571, "<|reserved_special_token_70|>": 49261, "Professor": 19516, "-": 29, "brown": 22216, "Ġinference": 23630, "Ġsplash": 36845, "ĠIPA": 47419, "Ġushered": 45892, "felt": 34218, "Act": 6868, "plement": 11954, "Ġcritics": 12815, "girl": 48187, "Ġclears": 45738, "Ġ```": 47182, "ĠTemplate": 30463, "Ġfronts": 32073, "Fast": 21793, "ĠFamiliar": 19584, "Ġcentrally": 43357, "Mon": 11278, "inburgh": 20731, "ibl": 6898, "Delta": 35469, "apple": 21949, "TF": 33030, "Ġantivirus": 36396, "rill": 22901, "paced": 22141, "riment": 42482, "edes": 23275, "compassion": 40297, "Ġbean": 20597, "Ġhanded": 17813, "Ġfecal": 28653, "Ġbiographies": 26126, "Ġdetermined": 5250, "Ġbone": 4914, "Ġelectroc": 25287, "Ġmattress": 35111, "Ġcooled": 21759, "ĠACT": 17500, "Ġburned": 11785, "Ġlinewidth": 39357, "Ġentertainment": 11154, "necess": 9623, "prime": 30921, "Ð°": 6511, "Ġsalmon": 11701, "urrent": 8078, "Ġrare": 3861, "proj": 33842, "Ġapi": 14615, "Ġundeveloped": 48300, "Ġprosecute": 47860, "Gas": 39814, "Ġteasing": 48495, "tot": 28088, "Ġtakes": 2933, "charged": 34773, "Ġpresidency": 23305, "Ġsapiens": 38158, "Ġencompasses": 15868, "Ġidentifying": 7401, "Ġexiled": 36889, "ĠVs": 42183, "ĠTexas": 5778, "xxxx": 31069, "actus": 48704, "Ġreservation": 25482, "Ġpulp": 17591, "Ġdisabling": 38408, "ĠUpanish": 48246, "omyelitis": 46759, "Ġxy": 29023, "alom": 39548, "Ġcomment": 5189, "Ġurls": 44961, "Ġbiop": 17187, "ĠProponents": 47640, "Ġnecessarily": 6834, "ĠRhet": 48222, "ilibrium": 12989, "Groups": 43443, "supported": 20376, "Ġnanomaterials": 44377, "Ġvaccinated": 18639, "sound": 30451, "ĠRow": 17506, "ĠLength": 27959, "Ġincin": 40642, "čĊč": 7209, "ethylene": 28240, "whel": 43300, "Ġthrowing": 17233, "ĠZhu": 47117, "ĠAndy": 30998, "Ġaccountants": 39481, "ĠMD": 9118, "ĠMun": 16957, "Ġsorts": 11695, "Secret": 36294, "Ġcoexistence": 33341, "Ġpears": 41684, "Ġimmigrants": 9859, "Ġaz": 21293, "Ġdeception": 28212, "belie": 23282, "Ġlarge": 1507, "Ġamounted": 37409, "Ġsleeve": 39279, "âĢĻ,": 7500, "Ġtomography": 28666, "inar": 15841, "Ö¹": 41901, "ĠCrim": 48075, "ĠASE": 36364, "Ġindig": 30518, "ĠIslander": 30076, "odian": 35070, "ĠPoet": 48210, "Ġ'__": 14209, "ĠCOMM": 30040, "Ġplaced": 4294, "itual": 7912, "AF": 11651, "Ġstands": 6443, "Con": 2557, "Ġgarage": 26297, "ĠPreserving": 47954, "fig": 2615, "ocry": 41232, "Âº": 26697, "Ġwhim": 47671, "?]": 44243, "ĠAurora": 41556, "wired": 45228, "Ġdrove": 19036, "ĠLiberation": 30589, "esi": 43549, "assertEqual": 5848, "Ġtraded": 21939, "arcin": 30257, "Ġwhip": 35496, "rup": 12841, "Ġpyg": 48710, "Ġbananas": 22861, "unting": 33643, "Ġministries": 39767, "ĠMarm": 46479, "ĠCSV": 31632, "Ġnamely": 11989, "Ġneighbouring": 25945, "Ġslogans": 46152, "ĠAnatolia": 43771, "ĠAlle": 46699, "setObject": 29391, "outine": 42564, "ĠDue": 10601, "Ġmeteorite": 38113, "God": 14191, "ĠGogh": 35863, "Ġlabelling": 42027, "ĠPanama": 24003, "David": 21070, "Ġinfused": 28376, "arus": 21777, "Ġcoupling": 26494, "Ġbachelor": 20064, "Ġdismantle": 43106, "ĠJudges": 36351, "','": 8178, "Ġescaping": 26634, "oring": 1522, "ingles": 24434, "Ġmosquit": 9680, "cons": 4005, "ĠSiri": 49136, "Ġorang": 34089, "acic": 27083, "Ġgentlemen": 37424, "Ġbells": 28034, "absorption": 39973, "ordering": 29122, "Ġpeanuts": 28087, "Ġmomentum": 13864, "enact": 41059, "Specifically": 46195, "production": 22890, "ĠEstablish": 19745, "ĠSubstance": 32149, "ros": 4066, "fam": 11639, "Ġpedestrian": 26480, "DEV": 37555, "aunt": 13660, "olutions": 40325, "Ġvaginal": 21080, "ĠWard": 20202, "Ġcohesion": 23156, "bohydrates": 41840, "Ġharmful": 5794, "Ġpictorial": 39495, "ĠAster": 36277, "Ġorphans": 41526, "Ġclassical": 8766, "Ġwhisk": 33024, "odb": 49087, "cert": 19249, "Und": 37319, "STOR": 33095, "Ġultra": 18332, "Ġportable": 15514, "Ġif": 585, "inet": 6224, "Ori": 35250, "Ġcriminals": 19631, "ĠCly": 39742, "Ġsettlement": 9334, "Ġvomit": 46956, "Ġpond": 8755, "Ġfend": 48806, "Ġhardly": 12765, "pleasant": 17858, "ĠInstitutions": 31637, "Ġautom": 3601, "åĲ": 16357, "ĠPat": 4209, "Ġsuffers": 21101, "Ġprefrontal": 37044, "Ġgh": 36575, "aud": 6155, "osin": 27000, "Ġstripping": 44151, "Studying": 46270, "IENT": 36666, "ĠIncorporate": 48758, "ĠEm": 2553, "Ġpotentials": 31424, "Ġsummarized": 25149, "Ġnegativity": 39218, "ĠPhone": 30578, "ikipedia": 7786, "Ġposthum": 41797, "Ġinteger": 15328, "nea": 12504, "overing": 13892, "Ġuser": 2914, "Ïİ": 26569, "AM": 4153, "Ġvocabulary": 8374, "Ġreconciliation": 19247, "Ġdepends": 5552, "Ġqubits": 41085, "iant": 5439, "rano": 46599, "Ġdiscrep": 19355, "Camera": 47025, "ĠMercy": 42309, "Ġcigarettes": 17384, "atalog": 32495, "ĠPakistani": 30326, "Ġvig": 9043, "ocol": 3699, "den": 5629, "Ġpink": 11986, "Ġnarr": 3896, "eday": 12781, "Ġnave": 40895, "<|reserved_special_token_35|>": 49226, "itut": 32220, "\"[": 39661, "ented": 6574, "ibe": 34909, "Ġsleepy": 38524, "Ġunve": 22545, "odel": 43062, "Ġtomat": 9731, "Ġdermatitis": 24579, "Ġradiative": 46566, "Ġwick": 47800, "icode": 15817, "adian": 14444, "ĠGonz": 30095, "Ġwarehouse": 27618, "á¸": 18982, "Ġinduces": 31495, "Ġbur": 3286, "ĠTrans": 3790, "Ġspoons": 37936, "Ġ####": 32713, "ľ": 246, "Ġdepending": 4509, "Ġdeeper": 4296, "Ġgenerational": 44487, "Ġinhibiting": 33027, "Ġdubious": 38794, "outer": 26072, "ĠCaesar": 19394, "Ġbeaut": 2886, "Bra": 21124, "Ġlayered": 31016, "rates": 5853, "ulty": 7086, "({\"": 28678, "hol": 13699, "Ġimm": 1426, "Ġheater": 21546, "ĠSave": 16326, "Ġbackgrounds": 10154, "Ġolives": 40514, "ugger": 44018, "Ġpassions": 18255, "uran": 39818, "uz": 15579, "Ġempathetic": 29013, "ĠAlbania": 40555, "posite": 26831, "Ġwithdrew": 30090, "Ġmammary": 48428, "ĠPike": 46221, "Ġabroad": 12222, "Ġtumor": 9426, "ace": 590, "Ġsticker": 42622, "probs": 36446, "Ġmourning": 29141, "upus": 22487, "Ġpolyphenols": 43814, "ĠSeptember": 4448, "ĠTaxes": 48982, "Prior": 23885, "Ġsurprisingly": 16819, "rina": 26580, "Left": 26839, "particles": 46227, "Ġfriendships": 16277, "ilo": 34437, "Ġwid": 3080, "ĠEnlightenment": 22209, "ĠMess": 11960, "{}'.": 40343, "Ġfeed": 2645, "ann": 1682, "yset": 29530, "rador": 33673, "bs": 1419, "edient": 38537, "ĥ": 221, "ĠREP": 36737, "IDS": 8465, "DataFrame": 15890, "Ġcopyright": 8822, "Ġfellow": 6955, "Ġengineered": 18666, "Ġfriendly": 7952, "avorite": 42305, "Ġnaming": 19492, "Ġallergic": 11990, "ĠChey": 42827, "############": 24967, "Ġbenefits": 2624, "ĠNPS": 46619, "Ġextension": 8780, "unicode": 35852, "ĠQuant": 14980, "ĠUpper": 15254, "ĠTechnological": 28897, "Ġmultifaceted": 17333, "hub": 35126, "Ã¸": 21817, "Ġshoes": 10582, "Ġuntreated": 15570, "erations": 27957, "Register": 29793, "':'": 19667, "Ġtransactions": 10527, "Ġcodified": 44386, "Ġfrescoes": 46378, "ĠAntib": 25863, "alms": 27433, "nums": 36516, "toxic": 22346, "ĠAli": 16145, "ĠThyroid": 38421, "Ġemployment": 6985, "Ġcredible": 23669, "ĠMay": 2405, "ĠZoro": 35447, "St": 1393, "Ġlocale": 42850, "ĠLane": 23629, "ĠReview": 6769, "ĠYankee": 49116, "ellular": 30163, "*-": 10271, "industry": 45841, "Ġchronic": 4951, "Ġorganisational": 44521, "Ġorthogonal": 43594, "Task": 22188, "ABS": 45119, "Ġproudly": 21526, "sta": 40966, "ĠLinux": 12561, "ĠHel": 5362, "Ġstrict": 6844, "ĠPrinciple": 25941, "Ġroughly": 8553, "Ġdifferentiating": 41624, "walk": 16617, "Ġcurr": 27356, "Ġwitches": 32356, "Ġfestival": 12587, "ĠIsis": 47126, "enes": 23822, "ĠCultures": 30261, "Ġaspirin": 24462, "eronomy": 33404, "ilem": 13489, "ĠTobacco": 28929, "asci": 21235, "ĠMiller": 13988, "attach": 36293, "Ġinner": 6210, "Â«": 39969, "Ġmanmade": 46046, "Yet": 16075, "Cont": 5121, "issippi": 11430, "Ġdefeat": 12721, "ituted": 18592, "ĠDisorder": 14232, "ĠCam": 5784, "systems": 27198, "Ġbetween": 826, "login": 15873, "ĠTheology": 30343, "Ġfiller": 39771, "pca": 47904, "new": 2241, "Ġchimps": 47387, "ĠCorpor": 11017, "bo": 2740, "cycl": 6555, "forming": 12474, "Ġtheolog": 26342, "Ġbig": 2066, "decode": 16333, "ĠUniverse": 15608, "Ġnewborn": 14665, "Ġmultinational": 27942, "ĠVoy": 25540, "ĠAngels": 40097, "<": 44, "jack": 35177, "ound": 620, "resistant": 14943, "Ġsurvives": 31158, "Keys": 35911, "ĠBasis": 46300, "rogram": 28016, "Ġcontrols": 7649, "Ġcoatings": 22841, "Ġload": 3509, "ĠValues": 22285, "Ġdiscourag": 21764, "Must": 40430, "ĠNeumann": 47035, "ĠEuropeans": 15386, "Ġjurisdictions": 21287, "NS": 8965, "amond": 47670, "Ġpedagogy": 28391, "Ġdil": 8601, "Ġtaxes": 8557, "OD": 5409, "ĠHood": 29057, "Ġempath": 25068, "ĠCircular": 40924, "Ġguard": 8246, "ĠJuice": 48104, "Ġsucked": 48940, "Ġdisseminating": 44342, "Ġentrenched": 28298, "price": 17517, "Ġcircumst": 5298, "Ġsetting": 4054, "Ġwasting": 24831, "Ġbeating": 23012, "ĠSuperior": 32482, "ĠControvers": 36448, "Ġmalware": 20285, "Ġfin": 1501, "Ġhurt": 9285, "ĠBosnia": 34112, "evelop": 40755, "Ġeat": 3134, "Ġtrying": 3396, "Ġscholarships": 28359, "beam": 27823, "erm": 833, "Ġrival": 13499, "ĠCal": 2540, "Ġnovo": 49113, "Ġsmo": 2985, "Ġcelestial": 18146, "ĠYou": 1206, "alla": 33401, "ences": 1259, "Report": 23121, "aneously": 21893, "ĠProf": 4576, "Ġrefining": 18509, "An": 2089, "ĠRE": 12710, "Ġintersecting": 43265, "inae": 32866, "ĠCare": 5960, "Ġthought": 2275, "Ġfibers": 11440, "ĠSik": 42092, "ankar": 42424, "arta": 25980, "Canadian": 31661, "approximately": 31178, "Ġhearts": 11349, "ĠTransc": 41783, "ĠEntertainment": 39185, "Ġvaccinations": 24466, "elled": 6259, "Ġbaker": 38993, "oren": 22022, "Ġmagazine": 11612, "ĠChef": 48086, "Ġincent": 9759, "Ġhomeowners": 21808, "wallet": 47778, "qa": 14619, "Ġstatistic": 22879, "Ġremarkable": 7155, "Ġcustomized": 19213, "Ġcoordinator": 25726, "Ġtkinter": 45706, "Ġlingu": 8229, "Ø": 163, "Ġchalk": 23137, "Ġloud": 10652, "olver": 43423, "hay": 46927, "ugg": 9337, "Ġfreezes": 43145, "Ġpyram": 14426, "Ġtrio": 32009, "Ġcultivated": 15764, "ĠCONDITIONS": 26819, "Ġmarvelous": 34274, "ĠGau": 36347, "Spe": 15024, "ĠRailway": 21295, "Ġinjury": 5128, "Ġpods": 27781, "ĠBali": 40114, "subst": 28936, "ĠEmployment": 25642, "Ġmilitias": 48754, "specified": 35121, "Ġmovement": 2891, "Ġpatrons": 26220, "NO": 13465, "ategic": 46914, "ĠUmb": 47188, "Ġirritating": 38321, "Ġradioactivity": 41785, "Ġgarden": 4480, "Ġsupernova": 32980, "Ġdistracting": 37542, "ependent": 9121, "olf": 6212, "Ġboo": 45189, "Ġnumbers": 2966, "jango": 7097, "Ġmarching": 32485, "Ġsatisfying": 19131, "outfile": 45019, "ĠTah": 33222, "Ġgraffiti": 32001, "Ġinvasive": 10770, "Ġdiscs": 26433, "ĠSchneider": 42060, "Ġacadem": 3195, "ici": 20040, "çĲ": 41671, "ĠEpstein": 47749, "Ġtrich": 37958, "ĠTyph": 44645, "errals": 35636, "ĠPlanetary": 34666, "################################": 7593, "Ġdwind": 27838, "Ġcommandments": 32728, "Ġwhooping": 48909, "Ġmoles": 29648, "ĠEmergency": 16833, "Ġmomentarily": 45753, "events": 19020, "al": 272, "ĠIceland": 17300, "Ġtaller": 26787, ",\\": 29323, "yss": 33334, "ç½®": 43136, "Ġabsorption": 10875, "oving": 7559, "massive": 41242, "ĠBuddh": 10873, "ucked": 24983, "Ġ###": 20749, "Evidence": 33619, "ĠMg": 35100, "Ġlongitudinal": 22494, "Ġstood": 9318, "Ġextermin": 41094, "ĠAuthentic": 48883, "Ġimplicit": 17141, "Ã": 142, "Ġanalyze": 6524, "Ġaloud": 16076, "Ġmodular": 23696, "Delete": 29548, "horse": 32798, "Ġdefin": 3674, "Ġredress": 38987, "incre": 19445, "Ġbrit": 21802, "Ġtolerances": 47875, "Relations": 38569, "Ġgloss": 18258, "thello": 40862, "Ġmargin": 14468, "artz": 16358, "ĠEmma": 20391, "Ġsouthwestern": 25921, "updated": 26935, "ĠOttoman": 15281, "ĠDee": 48144, "iq": 30943, "Louis": 35358, "notify": 41436, "vac": 38954, "Ah": 23921, "Ġstabilization": 31994, "Ġbeginner": 25906, "Ġhorrific": 34603, "utrients": 19988, "Ġweight": 2613, "ĠSentinel": 40588, "Ġoffense": 23802, "Either": 45814, "ricts": 8954, "Ġaccession": 35558, "Ġthreat": 2896, "Ġdual": 12272, "ĠGeographic": 18910, "artments": 24932, "Ġcontrasts": 25801, "esson": 7153, "Ġplays": 4566, "Ġmetastasis": 43057, "word": 3002, "Ġrespondent": 45932, "%(": 21644, "åĢ¼": 45494, "Ã¦": 16467, "ecology": 43536, "ibo": 41764, "Ġcolored": 10967, "igue": 8672, "ĠFault": 36775, "ocles": 44299, "ĠWellington": 31004, "Ġdrums": 26880, "Ġrelent": 23599, "cou": 36122, "ĠMO": 15720, "Ġadolescence": 19332, "ĠSocial": 4758, "Round": 45414, "ĠAwards": 30442, "ĠAlg": 17877, "Ġnoisy": 24369, "Ġskepticism": 23500, "islation": 34986, "Ġthunderstorm": 27206, "Ġexcursions": 45140, "Ġcareful": 5649, "Context": 17548, "Ġviolation": 16860, "Ġformatting": 20324, "Ġhonorary": 40084, "illus": 22197, "<row_4_col_4>": 49174, "Ġlawsu": 18142, "ĠAdri": 41001, "ĠVet": 35597, "ĠETH": 47375, "Ġclown": 44540, "iola": 43467, "onto": 13282, "ĠKelly": 22919, "Ġgoddesses": 33824, "ĠDa": 20845, "Ġracc": 35773, "posable": 45718, "etta": 22569, "ĠBeautiful": 25805, "ĠSituation": 47961, "inx": 24768, "Ġfibro": 42680, "Ġtheorist": 46505, "ĠKir": 22155, "odeficiency": 36404, "odo": 25414, "Ġmechanisms": 5971, "jan": 13977, "ĠMS": 9390, "Ġobesity": 7671, "Basically": 37400, "Ġhefty": 44979, "Ġadvert": 7508, "Ġnationally": 21746, "Ġrevered": 26736, "EST": 8242, "ĠBotany": 45442, "Ġans": 31483, "urns": 6659, "iliar": 4026, "ĠPulmonary": 48694, "ĠProtection": 9281, "Ġlivelihood": 15589, "ĠHad": 14261, "ĠOpin": 27698, "gov": 7894, "ĠRobinson": 17799, "Ġmissing": 6782, "à¯": 33535, "Ġviolet": 33871, "answers": 44350, "ĠPatent": 28756, "Innov": 40188, "Ġachie": 2142, "Ġfalse": 7065, "Becoming": 44120, "Speech": 43713, "iveness": 4391, "obacillus": 40676, "inic": 34402, "Ġsurge": 8839, "Ġlowlands": 46448, "Ġrelate": 9736, "Ġfax": 45356, "Ġamazingly": 43117, "Very": 26111, "tta": 38242, "]-": 27707, "ĠWinchester": 43137, "Ġmessengers": 33843, "ĠMash": 44824, "ĠBecoming": 30543, "Ġcomputational": 13447, "ovolta": 23304, "pure": 33458, "Ġplateau": 26957, "Ġresponding": 13972, "Ġlipids": 27860, "Ġrainy": 24536, "Ġwreat": 40951, "Surface": 33834, "ĠPT": 26731, "Ġirritants": 47115, "Ġcorrespond": 4855, "uman": 3490, "avi": 28352, "Ġleisure": 18266, "Ġfinal": 3403, "PA": 4442, "skilled": 34351, "Ġstarting": 4335, "ĠAyurvedic": 41077, "ĠHistor": 5393, "<|reserved_special_token_51|>": 49242, "Ġslopes": 18222, "ĠTyr": 35783, "webs": 48787, "Oste": 46217, "ize": 836, "Ġshoreline": 26060, "daughter": 35054, "ĠWhale": 38435, "pixels": 44104, "Red": 12869, "ither": 1878, "fix": 8894, "programs": 45744, "Ġtransmission": 6700, "'})": 30856, "Ġappoint": 5589, "dependence": 32299, "ĠWest": 3689, "Ġvarieties": 8294, "Ġprem": 6410, "COUNT": 33740, "Ġfellowship": 26782, "ĠRobot": 35648, "iculture": 23228, "omp": 26976, "ĠDoug": 37766, "generated": 20706, "ĠReporting": 28744, "Ġoptimize": 13240, "Ġstated": 6549, "acional": 37872, "Ġbreathe": 12720, "Ġfirstly": 38649, "Ġlb": 22185, "Ġcommunic": 3527, "onance": 36483, "ĠTox": 46537, "ĠAbram": 48255, "Ġdeportation": 40272, "Ġcephal": 38253, "Ġequator": 20028, "ĠLosing": 48081, "icker": 37536, "umb": 3019, "ĠIncorporated": 47411, "ĠIntake": 47250, "Ġhero": 5913, ".]": 12879, "plex": 9435, "Ġcontracting": 23695, "Ġhier": 8900, "raine": 10292, "Ġorb": 12705, "Ġpathological": 30964, "While": 3965, "ĠKod": 40897, "Ġprobe": 14540, "Ġnib": 40703, "ĠExcept": 29473, "Ġcommunicators": 47586, "ariah": 35938, "ĠKeyboard": 39850, "Ġtopographic": 37596, "Ġtrainees": 38267, "ĠFreud": 21896, "Americ": 6076, "ĠIntegrated": 22640, "bot": 9433, "ĠBil": 28044, "Working": 23830, "concept": 27430, "Ġvested": 34390, "Ġgall": 6760, "ultan": 21556, "ĠWW": 12409, "ĠNevertheless": 10817, "æī": 27898, "sil": 24140, "Ãº": 16148, "Ġgle": 35566, "ĠTransfer": 21863, "phinx": 34059, "circ": 21386, "Ġfurn": 7708, "Ġcaptiv": 8462, "ĠLiverpool": 31808, "Ġthirst": 18646, "ĠCox": 27815, "Ġmanual": 8961, "tom": 39753, "entions": 45965, "ĠOrders": 38330, "Ġwere": 592, "erv": 684, "oln": 8835, "clerosis": 15787, "Ġaligned": 13998, "Ġ(<": 27690, "ĠAmeric": 1052, "ĠCosm": 40846, "bidden": 40219, "inder": 7125, "uracy": 28882, "Ġadsorption": 42460, "ĠCliff": 34548, "Â¾": 43124, "obot": 42342, "tal": 42104, "Ġterrains": 42875, "ceeds": 12719, "manuel": 28052, "Ġreferring": 12634, "inator": 9821, "ĠShort": 11751, "Ġmarks": 8029, "Ġshepherds": 42762, "ĠOrleans": 17236, "Ġallowances": 42003, "Ġdetermines": 12783, "ĠIshmael": 46588, "Ġgardener": 32584, "Ġchain": 5891, "ille": 3285, "ĠWait": 22297, "large": 22444, "ĠEscher": 37870, "Ġrelapse": 27811, "Ġmerging": 26561, "Ġdries": 30184, "Ġfruits": 5574, "Ju": 15381, "wareness": 17276, "Ġundermining": 32055, "ĠProperties": 23792, "Ġbeen": 719, "Ġcarefully": 5054, "Ġmocking": 42484, "Äĩ": 27804, "cited": 40235, "pection": 18719, "Ġass": 757, "ĠPalmer": 29287, "points": 6911, "Ġyears": 929, "Ġwhom": 5337, "yle": 2407, "OG": 33137, "gebra": 9879, "ĠPhilippine": 27479, "Ġplunged": 45731, "adir": 39409, "Ġexplained": 5192, "ĠLac": 31648, "Ġcollaborator": 44740, "Ġreun": 20671, "Ġalphabets": 47345, "Ġvolcanoes": 20920, "<row_2_col_5>": 49163, "ve": 307, "nuclear": 42217, "Ġgenocide": 19128, "Ġinstalled": 7373, "Ġarray": 5079, "ĠFerguson": 35133, "ĠApps": 35442, "Ġmortar": 27238, "Ġdescriptive": 16724, "Ġinvestigation": 7376, "Ġreputation": 9748, "Ġprevents": 10759, "Ġpere": 15221, "Ġexcurs": 31811, "Ġdoesn": 2761, "Ġminus": 18253, "é¡": 38019, "Ġrotate": 19087, "VIEW": 34412, "flatten": 27097, "âĢ¦âĢ¦âĢ¦âĢ¦": 39278, "ceed": 3196, "Ġcommunications": 9353, "ĠKath": 19300, "Ġvalve": 12477, "Far": 26999, "ĠBow": 14167, "ocker": 17068, "Ġbump": 22908, "?\"": 4817, "Ġfuselage": 43840, "Ġmesmer": 31193, "Ġcorrel": 7863, "altitude": 38867, "Ġmed": 958, "PER": 18299, "·": 132, "lug": 16407, "Ġmitochondria": 25359, "ĠSwedish": 15710, "Ġlanding": 11318, "wic": 25050, "Ġcrisis": 6051, "Ġdesperate": 22415, "ĠChapters": 40302, "ĠCar": 2974, "ISPR": 28706, "Ð´": 19263, "Ġdro": 5582, "ante": 14648, "Ġtransporter": 46866, "clude": 8886, "Ġliked": 16686, "esting": 7010, "Ġgrowth": 2063, "Ġmuc": 11878, "Ġskull": 14027, "ĠTyler": 34159, "rays": 6897, "è§": 37249, "Ġentreprene": 9541, "ulation": 1247, "ĠNumbers": 20254, "Ġcandles": 21238, "Ġballot": 29053, "itant": 25963, "Ġlabou": 39714, "[@": 45012, "othermia": 40935, "ĠGust": 26821, "ĠBhutan": 33646, "rm": 5167, "Ġpatch": 11322, "Ġpromptly": 18037, "ĠIndependent": 18994, "Congress": 37200, "Ġembrace": 10286, "omnia": 17358, "ĠCounter": 22835, "Ġcapture": 6382, "Western": 24343, "Ġonto": 4581, "berg": 5799, "inston": 29601, "ĠLGBT": 10361, "Ġsang": 28729, "odder": 38395, "ĠRodriguez": 40865, "Ġsoybean": 24937, "Ġvineyard": 40167, "current": 7378, "ĠNGOs": 21761, "inkle": 31047, "Ġsunburn": 35541, "Ġpestic": 9006, "ĠEthiop": 14162, "Ġregardless": 7142, "Ġsinus": 19285, "ob": 675, "Ġ{'": 7353, "Ġozone": 15337, "Ġdengue": 26552, "estial": 16696, "Ġcoherent": 18706, "ĉĉĉ": 27655, "Ġcurb": 23764, "ĠAc": 3536, "uro": 1392, "Ġprecursor": 23235, "Supplement": 41667, "Ġselect": 2702, "ĠNottingham": 42307, "ETH": 47792, "gon": 13539, "ĠTomb": 40929, "ĠNah": 40671, "Ġbreathtaking": 19339, "Ġunbiased": 36417, "This": 1348, "Ġdia": 36468, "Ġ{},": 26629, "itoring": 13249, "aw": 912, "Facts": 36455, "oyd": 19604, "Ġsandwiches": 33549, "Ġsprint": 30074, "Ġluxurious": 31061, "Ġlith": 13298, "Ġundertaken": 14999, "Ġdonating": 37258, "ĠWireless": 32209, "Ġrequested": 13682, "Ġblockers": 40749, "Ġpoem": 8216, "ĠSaw": 28526, "Ġyet": 2408, "ĠSharma": 42986, "Ġlibrarians": 30572, "Ġborrowed": 21172, "Ġawakened": 47691, "rance": 8603, "ĠCONT": 28051, "culus": 46989, "Ġsmartphones": 16807, "H": 56, "ĠĠĠ": 333, "imag": 18788, "Ġpostpartum": 34630, "ĠPassover": 26454, "Rat": 42756, "Ġmad": 15480, "Ġsecured": 16080, "Ġbattalion": 31443, "ias": 4272, "ĠFollowing": 11387, "Ġdomin": 26794, "ĠColl": 11020, "Ġhandler": 20134, "target": 6999, "Ġinherent": 7183, "Ġmagnification": 34961, "ogenetic": 37869, "heading": 34613, "Ġalleles": 32394, "ĠEnable": 45151, "Ġmechan": 2782, "Ġindices": 14723, "ĠAdults": 21557, "Ġsample": 4315, "Ġsecurely": 19942, "lications": 30455, "agog": 12124, "Files": 29273, "ĠEdo": 45152, "ĠInput": 18100, "ĠIndividual": 11688, "Ġharmon": 11404, "Ġgreat": 1109, "Ġherein": 28626, "winter": 39254, "Ġartisan": 32958, "solving": 11850, "Ġthrows": 24475, "Ġphased": 41546, "ĠO": 492, "tra": 4861, "ULT": 13588, "mort": 30305, "Nodes": 41659, "hyth": 18175, "ĠWarner": 37711, "axes": 20736, "Ġthief": 42255, "Ġsophistication": 31922, "Ġfolder": 12938, "ĠSomalia": 25119, "Physical": 17832, "odont": 17549, "MIN": 23317, "masters": 43865, "Ġcorrespondence": 18500, "Ġphon": 12020, "Ġ(_": 43532, "Ġstellar": 24858, "ĠInstant": 42903, "bounds": 22532, "Ġkissing": 41962, "Ġpodcasts": 29534, "Ġfishing": 8725, "ĠStructural": 28059, "ĠNig": 14056, "ĠScandinav": 21347, "oppy": 30918, "Ġrecurrence": 26321, "ĠBour": 23731, "ĠTOP": 45713, "Ġstalks": 30440, "Ġbrilli": 11229, "Ġreplicas": 47325, "Ġexh": 17880, "Ġplayback": 47293, "Ġgadgets": 20923, "Ġconnection": 3890, "Ġroyal": 9202, "Ġcrosses": 21973, "Ġenormous": 10102, "Ġomn": 22473, "ĠOptional": 8327, "Ġhydrogen": 7457, "Ġadvis": 6271, "ĠRobotics": 31589, "asan": 34088, "Ġhoped": 14762, "Ġunem": 10950, "Ġmushrooms": 18131, "erver": 10740, "Ġbonuses": 48132, "Ġoverwhelming": 10687, "Ġchrist": 29358, "Ġmeth": 7700, "Ġbison": 27273, "Ġwishes": 15818, "ĠHerm": 19065, "Ġceremony": 13708, "ĠNSW": 29096, "Ġgravit": 14974, "Ġprevails": 44252, "anna": 13506, "INGTON": 45679, "othelioma": 26608, "PORT": 21312, "ĠRequired": 26003, "glom": 40538, "semin": 17998, "height": 11551, "Soci": 31938, "Ġventral": 37495, "âĢ¦..": 43785, "Ġbounty": 39035, "à¤¨": 30658, "asian": 19977, "ĠBuzz": 42855, "Ġrecomm": 2377, "ĠMissile": 43750, "env": 7869, "ĠHerald": 28961, "USA": 24842, "dam": 14151, "ĠHinduism": 20632, "Ġpromoter": 36609, "Ġsegregation": 16417, "ĠExtract": 28873, "Ġtimelines": 30521, "Ġherself": 8698, "Simply": 36823, "Ġexceeded": 22260, "Prom": 24785, "||-": 35974, "Ġpriest": 13274, "Ġcharacterised": 28832, "issors": 21712, "ĠPenny": 41250, "ĠAl": 1065, "Ġladies": 24553, "Ġcocaine": 22207, "ĠFunding": 34732, "ĠSuper": 8486, "ĠGreenland": 19983, "Ġfair": 3506, "ĠProcess": 8277, "Ġpolitic": 45845, "ĠNuclear": 16656, "ĠPittsburgh": 23469, "ĠBrother": 17006, "Ġhampered": 40111, "Ġcamel": 32782, "î": 185, "ĠCache": 39820, "Ġapocalyptic": 46250, "offset": 14042, "Ġeleph": 10952, "ĠBiology": 10814, "ĠHarvest": 34955, "bucket": 21948, "tile": 29354, "Ġdecides": 16622, "ĠMode": 26198, "ĠCut": 13289, "Ġhacked": 42830, "Ġdeciphering": 36374, "heng": 28400, "ĠScope": 42584, "Ġ\"\"\"": 1620, "ĠAND": 7485, "nal": 2010, "duate": 9078, "ĠYog": 40705, "Ġrevolutionaries": 43260, "ĠInt": 2507, "igration": 10457, "Ġpin": 8268, "Ġrecalls": 25369, "Ġkits": 21034, "Ġinterface": 8334, "ĠHunger": 35276, "Ġmys": 7272, "Ġbidding": 44746, "Ġfactory": 10303, "Ġdilemmas": 22093, "PhD": 44290, "Companies": 45338, "ĠBurk": 39301, "Ġinterested": 4854, "ĠHumanitarian": 47111, "ĠRaise": 43131, "ĠLiberty": 20577, "ĠPrepar": 15864, "ĠAntioch": 42860, "Review": 21465, "Ġcrispy": 34922, "Emp": 35112, "Ġdelectable": 39833, "iki": 7762, "Richard": 29604, "ĠBillion": 46547, "ARM": 39042, "...\"": 19110, "Depression": 40489, "ĠHoo": 25443, "Ġstrive": 11635, "metic": 15732, "Pack": 22312, "ĠConfederacy": 28004, "Ġunavailable": 27692, "Ġforested": 32886, "ĠRitual": 41084, "probability": 37559, "love": 28367, "Ġreferencing": 30231, "Ġbrethren": 34931, "Ġdisadvant": 9870, "ĠMcDonald": 29212, "ĠConstantine": 27776, "Ġoverh": 48603, "estion": 5160, "HCR": 41056, "Ġcyberspace": 41248, "Americans": 20013, "ĠLeibniz": 45710, "Ġlikened": 45453, "DIR": 15862, "atenate": 25687, "ĠResolution": 21766, "ĠMemoir": 37451, "dim": 5039, "GY": 32710, "Ġkeeps": 8211, "rection": 8676, "Ġbetter": 1365, "Ġsuspected": 13130, "ĠThai": 22839, "Ġderog": 46189, "Ġsurreal": 33275, "Ġcompliance": 9626, "ĠImprove": 21677, "aily": 2628, "ĠAhmad": 35061, "cont": 2651, "Ġfel": 22445, "Ġthresholds": 27601, "iotherapy": 24198, "sylvania": 9585, "lm": 31431, "ukkah": 37750, "Ġretreat": 16623, "Ġie": 33468, "Ġattaching": 30990, "Ġdrops": 11859, "Ġnavy": 24029, "ĠResearchers": 11536, "masked": 40795, "Ġmem": 1169, "phys": 26605, "ĠPLOS": 47205, "ĠEvent": 10081, "Ġcourtyard": 34659, "ĠGates": 23966, "ĠConsistency": 46701, "Neg": 27248, "Ġholding": 6961, "Ġgoose": 31433, "cers": 5577, "Ġcontemplation": 30209, "Ġmart": 11708, "ccording": 2805, "Ġdisguise": 36862, "ĠShift": 32749, "ĠPlaying": 33340, "ĠWhite": 5683, "Ġvacc": 3451, "Ġunderweight": 45912, "Ġenh": 2826, "Ġsubsidies": 19768, "Ġdos": 14277, "Ġhygi": 9588, "Ġmeter": 12642, "Ġaccess": 1594, "Ġrepl": 3842, "Ġph": 777, "url": 4579, "orian": 27545, "Ġaid": 5146, "Ġresurrect": 39471, "her": 349, "Ġesophageal": 39366, "ACK": 14416, "pri": 2602, "Ġincoming": 17807, "ĊĠĠĠĠĠĠĠĠĠĠĠĠĠĠĠĠ": 945, "Ġ\"\",": 27767, "Ġardent": 46047, "lets": 6770, "Ġconstituencies": 48819, "ĠBaking": 46044, "Ġmaintain": 2125, "Ġelectoral": 20089, "ĠCIA": 24805, "Ġinherit": 13432, "won": 38955, "Sigma": 48701, "Ġemotional": 4122, "Ġinc": 1266, "Ġexemplifies": 29731, "Ġshalt": 36034, "ĠJF": 33641, "ĠGentle": 39449, "ĠSag": 33907, "Ġjurisdiction": 14064, "ĠUt": 7472, "hip": 974, "ĠIf": 1094, "browser": 31430, "å¸": 32947, "Ġlaure": 32145, "Ġtickets": 22830, "Ġdiagnosed": 7673, "Ġclash": 31833, "Ġmeteors": 45874, "cool": 22895, "Ġ].": 44653, "Ġslaves": 9219, "ĠViolence": 20210, "Ð¸Ðµ": 38704, "Ġadip": 33452, "hart": 25330, "Ġsources": 2785, "olescent": 13149, "ware": 2044, "ĠGlasgow": 28250, "Ġentropy": 25142, "Ġagency": 6871, ">": 46, "Ġseabed": 44467, "Ġsadd": 35224, "Ġplea": 37411, "owl": 20829, "ĠIt": 657, "hemer": 27659, "Light": 21553, "else": 13830, "ĠPartition": 45577, "Ġbil": 23059, "Active": 25979, "hundred": 39075, "Ġacting": 8947, "Body": 22746, "ĠPius": 39803, "Ġpreferably": 25490, "ĠLT": 37382, "Ġsustained": 11787, "Ġgranting": 23796, "ĠRaman": 34551, "Ġpe": 610, "Ġsubsid": 11361, "Ġtitled": 14089, "cer": 1704, "<row_1_col_2>": 49154, "Ġscreenshot": 44839, "Ġeasily": 3152, "south": 28234, "Ġgrate": 16261, "Ġglaze": 40534, "ĠNervous": 46633, "Ġjuris": 9484, "Ġburial": 15502, "Ġexcludes": 40090, "ĠMotors": 36343, "ĠPI": 21609, "otype": 8261, "Ġcategorize": 31239, "wealth": 15801, "Ġdiabetes": 4348, "Ġthreatening": 14381, "Ġstrata": 30668, "ĠBrent": 43303, "Ġslices": 19984, "acial": 15105, "ĠSyn": 16190, "Ġfrag": 5596, "Ġprevail": 30864, "Here": 4590, "Ġcontempl": 16152, "<issue_comment>": 9, "ĠLin": 9565, "Ġburials": 39044, "ĠMiguel": 38802, "Ġshells": 14866, "Ġdisreg": 21680, "Ġdire": 23798, "Ġoldest": 9326, "ĠBalanced": 46171, "Ġstyl": 19897, "basis": 32417, "Ġcasing": 38325, "ĠKnow": 6218, "Next": 8693, "Ġpowdery": 47822, "ferably": 43259, "ĠRegional": 14956, "Ġassumed": 9830, "Ġspectroscopy": 26576, "early": 12305, "those": 24120, "Ġsulfide": 36202, "AU": 37531, "UND": 21277, "ropolis": 24433, "Ġfierc": 37809, "ĠMarc": 11560, "hetic": 4612, "/~": 38392, "opold": 31273, "Ġpromotional": 33149, "Ġfetch": 22957, "Tem": 24514, "ĠCampus": 31572, "Ġalumni": 38520, "Ġpredefined": 31918, "obos": 44616, "ix": 1088, "ĠMater": 49125, "odied": 29937, "omial": 15392, "Ġstuff": 7386, "ĠSocialism": 39205, "ĠStraight": 39596, "Ġturnaround": 47989, "ratory": 21150, "\\\"": 35769, "Ġmunitions": 44346, "Ġsemiconductor": 24007, "ĠAle": 18764, "Ġpresum": 13305, "Ġprotagonists": 23562, "ĠEasy": 20014, "Ġintracellular": 33019, "ĠLM": 31126, "Ġhorticulture": 40767, "Ġmotivational": 33263, "patches": 47195, "Ġblooms": 18755, "author": 7076, "Ġmicrowave": 19375, "Ġtacit": 44893, "=\"\",": 38232, "ĠWick": 45190, "spot": 24079, "ĠSkin": 16470, "Ġinjections": 22225, "agu": 15394, "Signs": 31287, "ĠPythag": 31062, "Rout": 31655, "Ġtags": 12082, "ĠDrew": 45054, "ptide": 36697, "ĠMagazine": 16687, "suffix": 30370, "ameter": 34028, "thr": 37314, "methods": 21303, "Ġtint": 35336, "aguar": 39305, "ĠPhase": 19395, "Ġspeech": 4778, "Ġtrust": 3634, "vement": 14325, "ĠAdapt": 13552, "Ġcalming": 24332, "signed": 44625, "ĠPro": 1053, "Ġverify": 12198, "Analysis": 27931, "Ġmicroprocessor": 47770, "Ġcumbersome": 39497, "severance": 15150, "information": 14243, "Ġprey": 9986, "Ġescape": 8080, "Ġnoun": 11531, "ĠAbraham": 11784, "trans": 4208, "xff": 44191, "compl": 34728, "ĠDerby": 47043, "Ġsmelling": 42918, "keywords": 40002, "-$": 47327, "ĠCVD": 39341, "ĠUrs": 40078, "rap": 3526, "ĠFeed": 15669, "Ġvisible": 6178, "ĠGRE": 23675, "Ġspawned": 42832, "riminals": 38918, "Ö": 161, "Ġoverseeing": 42267, "Ġeconom": 1582, "abl": 38979, "Ġanswering": 16522, "ĠLeader": 25203, "ĠNazis": 20540, "Ġasphalt": 29739, "ĠStrike": 43152, "eye": 20422, "={'": 19837, "Ġtame": 45181, "ĠMennon": 29963, "bor": 3259, "Ġrecover": 8516, "Ġtonight": 34451, "!\",": 38500, "Ġaxis": 6867, "merc": 42488, "ĠBolivia": 29118, "antic": 4605, "ĠPaint": 31829, "ocative": 26769, "Ġparticipating": 9631, "Ġfragments": 13693, "Ġiterative": 33018, "char": 9061, "Ġendeavors": 18683, "seen": 14608, "iterranean": 10548, "Ġdied": 4242, "Ġporous": 26768, "ĠHurricane": 20695, "Ġaccommodation": 19406, "Ġfish": 2698, "Ġdishonesty": 49034, "Ġmouths": 24398, "ulsive": 16180, "Ġdomest": 27564, "rum": 4915, "uebl": 25551, "ĠCollier": 48979, "Ġelegance": 30980, "ĠVegetables": 32772, "Ġprost": 14215, "Ġsomewhat": 7932, "Ġconsequence": 10931, "Ġmisfortune": 41385, "ajor": 1618, "ĠImplement": 16662, "falls": 17435, "Â": 141, "Ġalarms": 30050, "irmingham": 21780, "Ġastronaut": 13790, "Ġhypogly": 33103, "ĠDistinguished": 43166, "Ġbehavior": 2555, "ĠSic": 20747, "Ġmice": 7913, "Ġfuse": 26407, "Ġton": 9241, "ĠMake": 5294, "GE": 10992, "Ġintroductory": 21082, "Ġequine": 36526, "ptoms": 2162, "Ġposed": 13954, "Ġresponsibly": 19750, "bytes": 15829, "Absol": 42686, "Ġsuffice": 32554, "Ġparish": 16596, "pace": 6525, "Ġdozen": 15026, "Ġmonopoly": 25037, "ĠPries": 26790, "ĠSud": 13702, "Ġzero": 6708, "Ġfridge": 28867, "holm": 25248, "tro": 40818, "Ġencodes": 46685, "Ġrainwater": 25335, "train": 4428, "ijn": 49096, "Ġinterpretive": 36911, "Ġtributaries": 32826, "Ġstrangers": 19221, "ĠNG": 12929, "ĠAnything": 31666, "ership": 13550, "Ġgenitals": 45037, "ĠDiff": 6767, "Ġslot": 22305, "Ġresid": 8255, "licking": 45627, "ĠPatricia": 35023, "ĠZoology": 45426, "ĠTerry": 31331, "Ġhandout": 40551, "Ġstarring": 45608, "ĠCompl": 43241, "Ġappliance": 27278, "ESS": 9248, "ubile": 39728, "Ġwhereas": 6570, "Ġreproducible": 41088, "ĠOrdinary": 47842, "Ġjudicious": 32026, "Ġincumbent": 37806, "Ġcharges": 11233, "ĠCaj": 42552, "anced": 2274, "Ġindications": 22967, "respons": 17791, "Ġmarriage": 6724, "ĠEmphasis": 38640, "slot": 34085, "ĠIllust": 18701, "Ġspecifically": 4170, "ĠPlant": 8199, "AlmostEqual": 30093, "ĠAF": 21048, "aird": 40118, "Ġmasculinity": 31078, "INPUT": 44639, "Lines": 42835, "ocaly": 23889, "ĠJapan": 3085, "âĢł": 20902, "Ġenfor": 14439, "Ġfigure": 4110, "tow": 44282, "Ġcounted": 17288, "Ġexogenous": 48550, "Ġdepict": 6500, "Ġcommentary": 16468, "ipp": 2317, "Ġentanglement": 44175, "missing": 24868, "Issue": 42773, "Ġdisag": 8967, "Ġdetectives": 31758, "Ġpanda": 46954, "Ġ__": 2758, "fitting": 22866, "Ġsorting": 21281, "emotional": 31118, "figure": 15123, "Ġantibodies": 12263, "ifix": 28591, "ĠKeeping": 18342, "Ġstri": 3474, "andem": 29842, "oker": 33940, "nx": 17544, "emit": 41846, "Ġeagle": 22261, "Ġtraditional": 2556, "RI": 5135, "Br": 22233, "EP": 7293, "ĠProphet": 14303, "TR": 10895, "Ġpriced": 35280, "Ġlum": 29517, "æ³ķ": 45831, "Ġchaos": 13820, "Ġbruises": 46307, "Coff": 46080, "Compan": 40792, "Ġexpl": 889, "Ġcustomary": 22896, "Ġrevelation": 17844, "News": 21037, "ĠCy": 7105, "ĠAthens": 18793, "Ġwre": 16285, "Ġrep": 1024, "Ġcalibrated": 35342, "digital": 26127, "Ġpropriet": 32159, "æģ": 42399, "IRED": 46737, "Ġsplits": 30855, "Ġprospects": 17008, "llium": 44113, "ĠCorn": 10503, "Ġfingerprints": 34957, "¦": 116, "Ġenab": 5444, "ĠEstablishment": 41515, "Ġarable": 38157, "Ġdistributing": 26030, "ĠGardening": 33961, "Ġpr": 694, "MES": 26826, "ĠBattles": 44375, "irus": 7382, "Saving": 44028, "ettes": 22680, "ĠOT": 31181, "threshold": 16175, "ĠInvestig": 18259, "ĠSevere": 26174, ",*": 44510, "ÐµÑĢ": 29668, "onal": 8344, "jas": 44941, "Ġacreage": 40713, "Ġprocessors": 20036, "ĠCFR": 41525, "Ġwall": 4923, "Ġpups": 32392, "always": 36287, "Ġframe": 6198, "Optim": 34363, "Ġarguments": 6604, "Ġanalytical": 13434, "Ġneutrinos": 42127, "ĠPolicy": 8789, "ĠHoover": 30354, "Ġsaf": 1493, "Ġvolcan": 8067, "ography": 2882, "lish": 1340, "otechnology": 12856, "Ġprominence": 23838, "ĠÐ": 5470, "ĠHazard": 30629, "worth": 9454, "Ġconverter": 25850, "Ġdeprecated": 48771, "Ġroses": 26140, "Ġfolds": 25296, "ĠKom": 34541, "bing": 7519, "Ġtwisting": 31222, "Ġabsorbed": 11606, "Ġconclusions": 10302, "lishes": 20580, "Ġhabitable": 32727, "healing": 43200, "ĠTransportation": 18607, "ingen": 45670, "Ġlecturers": 43573, "Ġtorchvision": 48236, "vas": 10794, "Ġtroublesome": 37022, "peut": 7914, "ĠDrink": 26883, "ĠMao": 26189, "Ġshipping": 12497, "ĠStefan": 44160, "ĠLicense": 6966, "Ġstatehood": 44959, "too": 23034, "Ġdefinitive": 18304, "ĠFusion": 34870, "Ġsophisticated": 9733, "ĠFrank": 7014, "Ġunfit": 45388, "exc": 18914, "ĠRehabilitation": 29387, "Ġsugary": 25393, "Ġairplanes": 25557, "Ġinverted": 31608, "max": 3831, "Ġreally": 2159, "Ġsubprocess": 19031, "Ġexcreted": 42198, "oplastic": 33113, "\"][": 24017, "ĠExploring": 10436, "Ġpolite": 26310, "Ġdivisible": 46522, "Ġseparate": 4447, "stage": 14680, "ĠCr": 9275, "Ġabbey": 43842, "ĠAncest": 33044, "Decimal": 42574, "ĠRainbow": 37576, "rels": 12471, "ĠMills": 27805, "phabet": 10671, "Ġzooplankton": 48449, "Ġtrails": 16475, "fetch": 20156, "sphere": 43874, "Ġsaves": 17749, "Ġpineapple": 33876, "Ġeukaryotic": 40784, "lett": 24263, "Hyd": 24015, "ĠManage": 32599, "ĠGentile": 46584, "Ġinsect": 4783, "walks": 30630, "ezvous": 45938, "Ġdir": 16371, "Ġhappiness": 8906, "LICENSE": 25138, "Ġredundant": 30049, "ĠExploration": 17005, "<|reserved_special_token_6|>": 49197, "Ġdigested": 32963, "ĠYah": 20009, "aries": 2372, "Ġmind": 1945, "DEFAULT": 23448, "Ġware": 17583, "ossal": 33729, "ĠCorb": 37460, "Figures": 49030, "Ġbiometric": 44577, "Ġenclosures": 39878, "ucalyptus": 30777, "Ġfreedoms": 21457, "Ġreforest": 45554, "Ġprivately": 22061, "ĠXi": 35918, "ĠPact": 45397, "Ġcultivating": 14282, "Ġbottle": 10765, "ĠTheoretical": 40346, "Ġnobody": 14938, "ĠRudolf": 43199, "Ġuniform": 8281, "Ġappointment": 11792, "pload": 9111, "æ¨": 43828, "Ġcommodities": 20514, "ĠCW": 39178, "enic": 17604, "Ġrelax": 6081, "utive": 5942, "stic": 11220, "Ġoccupy": 17573, "Param": 12412, "ĠEvaluating": 32709, "Ġtemplates": 20956, "iota": 25420, "ĠIntelligence": 12761, "rpc": 38018, "Ġquotation": 27437, "Ġbeaten": 24172, "Ġideas": 2821, "Ġsuboptimal": 46698, "sec": 5016, "Ġalt": 6127, "ĠÏĥ": 32437, "prot": 10554, "Ġphotoc": 34654, "sequence": 19932, "Ġstruggles": 9409, "Ġunknowingly": 43361, "ĠCompany": 6721, "Ġcannib": 40958, "ĠEhr": 48244, "Ġcra": 3722, "Ġgrim": 32002, "Ġreferenced": 24473, "cards": 16640, "state": 3595, "Ġabrasive": 41216, "String": 10492, "Ġvaluable": 3172, "Ġcaste": 21494, "atics": 20924, "ĠAirport": 23586, "Truth": 46375, "ĠPublishers": 23723, "Ġslider": 41780, "Ġpropel": 32832, "ĠHarrison": 22392, "ĠAffordable": 39797, "ana": 3231, "elessness": 46089, "ĠGood": 6422, "voltage": 31374, "Ġadaptable": 26239, "ĠTour": 14257, "ĠRepeat": 19637, "ĠSur": 4630, "ĠâĨĳ": 17331, "Ġcalculating": 17085, "ĠKot": 39298, "Ġlovely": 17915, "ipv": 44193, "Ġorchid": 33705, "Ġestimated": 5183, "Ġplantations": 20300, "Ġlineage": 20730, "ĠAcceptance": 40070, "Ġidolatry": 45885, "Ġemissions": 4562, "ĠPurple": 35608, "Ġu": 326, "treated": 31107, "ĠAM": 10974, "attice": 23840, "Is": 4182, "Ġfinancially": 18589, "Ġdoor": 6644, "IND": 14300, "Ġsurrounded": 10000, "Ġdisciplines": 10578, "ĠGiza": 44897, "Ġ-->": 29255, "Ġalternative": 4168, "feed": 8579, "Ġpiqued": 34725, "ĠJoint": 16013, "Ġprescribing": 30900, "Ġdisorder": 4650, "ĠTools": 15204, "ĠKon": 25109, "ĠEdith": 48038, "Cancer": 31333, "ĠâĢŀ": 40163, "Ġdebit": 38425, "Ġcentrifug": 30401, "existence": 43694, "Ġwillingly": 36430, "aisy": 28047, "ĠRP": 36318, "ĠGree": 3650, "Ġhanging": 15013, "Ġquantify": 22347, "Ġpairs": 9180, "asarray": 31414, "adish": 44615, "Ġpresided": 44711, "ĠSat": 8265, "ĠHitch": 48966, "Others": 37574, "Ġdigestible": 46490, "ĠEuro": 15407, "bullying": 21527, "ĠLed": 27332, "Ġcomparative": 15335, "ĠPo": 8394, "rophes": 41866, "<|reserved_special_token_31|>": 49222, "Application": 22509, "Ġtotally": 10878, "Ġswarm": 32529, "Ġwastage": 49016, "åĩ": 26217, "maker": 16201, "Ġclinician": 36248, "Inf": 9026, "Matt": 37247, "ĠIMP": 26132, "ĠMA": 10530, "istics": 2659, "Ġrequesting": 26240, "Ġsilt": 32419, "aria": 6702, "Rob": 20348, "Ġfalcon": 39967, "Ġmonk": 25657, "ĠAlternatives": 42665, "Ġmegal": 43688, "frequency": 17344, "Ġexerts": 42684, "uw": 41570, "Ġthi": 42506, "Ġponder": 29561, "Ġborn": 3988, "Ġsignifying": 40294, "Ġspe": 1401, "Ġmonitors": 19004, "otta": 27893, "Ġful": 3084, "ĠShark": 40127, "kyo": 17405, "Ġconce": 13424, "Ġinsisting": 38192, "Package": 44106, "Ġbehaviors": 5693, "artha": 18267, "Ġurgently": 34516, "Ġtransact": 42689, "ĠSongs": 35617, "Ġnutrition": 4777, "ources": 1271, "Ġcontinu": 3502, "RO": 3911, "ĠParker": 22850, "ĠThompson": 14147, "Ġpoured": 21620, "running": 20857, "kerel": 41012, "cohol": 4125, "ĠWhy": 4896, "ot": 320, "Ġbaseball": 16352, "Slow": 41142, "VER": 11684, "drawal": 47135, "ĠRajasthan": 44261, "Ġradiation": 5200, "cases": 24407, "Upvotes": 3819, "Ġindust": 1826, "ĠProductivity": 47750, "ĠLore": 38147, "coll": 20236, "Ġpresenter": 46580, "ĠCanberra": 40136, "Ġliner": 38778, "ĠKiss": 39653, "Ġfilt": 19222, "ĠATP": 23961, "Ġmains": 42463, "gom": 21858, "Ġcalculated": 8449, "Ġmand": 7252, "ĠEzekiel": 37791, "eful": 10332, "overed": 2213, "Ġraging": 42676, "ĠZe": 15374, "table": 6413, ".):": 47618, "<empty_output>": 16, "Keeping": 31269, "Ġkill": 5619, "Times": 39866, "Ġex": 364, "atham": 38694, "gean": 39397, "attention": 26256, "Ġsoups": 27252, "ĠInstru": 21889, "HV": 31581, "Ġheterogeneity": 35331, "oids": 8960, "Stop": 25725, "ĠCRISPR": 31070, "Ġpioneers": 21310, "<|reserved_special_token_8|>": 49199, "ð": 187, "Ġemancipation": 30020, "aine": 11581, "rotation": 30384, "Ġdesktop": 19104, "ĠHealthcare": 19470, "Ġinfluences": 7843, "NA": 1933, "Ġaorta": 39633, "Ġdisagreement": 23580, "čĊĠĠĠĠĠĠĠĠ": 18850, "urred": 14046, "Ġattraction": 16584, "ĠÐ¸": 29972, "Pos": 17865, "Harm": 44226, "Testing": 33213, "jection": 22122, "Ġnested": 26941, "Ġongoing": 5185, "Ġunknow": 36173, "ĠHubble": 22142, "ĠMcCarthy": 35206, "Preparing": 42196, "Ġpixel": 16471, "Ġantipsych": 42858, "Ġzip": 13805, "Rober": 21722, "Ġmutate": 48709, "ĠVilla": 40164, "Ġunprepared": 46779, "Ġfully": 4090, "zzy": 21472, "ĠProduction": 16698, "Ġhemorrhage": 40625, "Ġhomemade": 20150, "ĠCole": 20502, "Ġarteries": 14529, "Ġitertools": 35408, "ĠSn": 11501, "Ġsimply": 2788, "Ham": 29564, "Ġfluent": 30634, "ĠÅ": 18811, "ĠBake": 47393, "Ġcat": 2644, "mining": 47091, "'ll": 3060, "Nearly": 32462, "Ġtowering": 25854, "ĠGive": 13843, "ling": 1519, "ĠPeer": 26322, "pective": 11836, "replace": 9630, "uis": 8817, "Object": 9453, "Ł": 249, "plays": 33583, "ithub": 13573, "ĠDrama": 36028, "ĠCommunication": 11429, "ĠMike": 19331, "raints": 8830, "Ġtighten": 39540, "ĠGujarat": 38405, "ilde": 45111, "arette": 15549, "Ġpuzzle": 12728, "Ġache": 42901, "<jupyter_text>": 12, "ĠHeights": 32883, "Ġdivinity": 32201, "Ġupward": 16408, "yad": 45301, "minutes": 37221, "ĠStephanie": 43221, "Ġinfest": 16832, "ĠBreathing": 35095, "Ġtempt": 13804, "Ġdelays": 16846, "rizes": 25765, "Ġinitials": 43941, "Ġfantasy": 15879, "Ġattractive": 10700, "hop": 6994, "Ġaesthetics": 16648, "Ġbulletin": 39965, "ĠTehran": 40308, "ĠPew": 32065, "ĠStat": 7984, "MO": 12850, "owment": 35733, "cover": 18673, "Ġgifts": 12282, "Ġemphasise": 48318, "Ġinvaders": 24683, "Ġherring": 37726, "ĠOpera": 31683, "course": 15681, "Ġvegetables": 5136, "oss": 786, "Ġenriching": 25465, "ĠDelaware": 21346, "Ġmid": 3921, "Ġurges": 30832, "Ġsomatic": 34768, "Ġtru": 4084, "Ġpastry": 35268, "Ġenables": 6396, "ĠFewer": 47503, "Ġaccum": 6908, "Ġoppressive": 25105, "Ġmeantime": 22441, "avirus": 11258, "chell": 19605, "Ġcrops": 6020, "plet": 12488, "Ġdecay": 8973, "abies": 29398, "LV": 32005, "ĠHuntington": 34890, "Hel": 11653, "encies": 3233, "Ġrupt": 20485, "Ġresisted": 27907, "Ġadapted": 9309, "Ġconservative": 13183, "Implement": 43077, "Ġhaplot": 45378, "Ġpolitely": 31348, "Ġinterviews": 11065, "question": 19945, "ĠHess": 34211, "ĠVanderbilt": 42550, "Ġcogniz": 48065, "ign": 545, "Ġdissect": 26778, "Ġmaturing": 47890, "ĠVM": 29550, "je": 16864, "ĠMcL": 34534, "Ġconvictions": 27218, "ĠConstant": 18127, "REL": 32312, "ĠChandra": 34045, "ĠRit": 46947, "ĠBism": 41747, "ILE": 31815, "ĠRescue": 34292, "Ġplatelet": 37695, "Ġimplemented": 7513, "Ġmigration": 8529, "Ġelab": 10963, "Ġprovides": 2433, "Ġhobbies": 19829, "Ġstumbled": 15979, "ifted": 22276, "ĠTurb": 41246, "Ġtowels": 26855, "Ġmortgage": 22353, "Ġtrag": 14844, "clinical": 24346, "Ġswimmer": 47710, "Ġarticulation": 36068, "Ġcarbide": 49134, "ĠRand": 12089, "Ġvisitor": 17469, "Ġ----------": 16836, "Ġmadness": 36215, "neigh": 22888, "isi": 28628, "Ġsoftened": 39810, "Ï": 154, "Jud": 32257, "Ġbrewed": 47166, "perf": 37088, "ĠDewey": 38436, "aughters": 15248, "Ġrecycled": 13081, "ĠCup": 23278, "ĠEve": 19147, "Ġgraphe": 22430, "release": 20516, "Ġdevices": 3381, "ĠFarm": 11568, "Ġmythical": 26271, "Ġadversely": 26560, "big": 17214, "movie": 40403, "ĠAnxiety": 21719, "mat": 3352, "Suppose": 33279, "ĠAfric": 2079, "ËĪ": 25249, "Ġnov": 17887, "Ġexile": 20344, "Ġhungry": 15100, "may": 11941, "Cop": 36879, "ĠJake": 24348, "Ġunsaturated": 39300, "operated": 44291, "Ġremnants": 21649, "questions": 16900, "Ġrelatable": 20988, "Region": 38279, "Ġcapabilities": 7596, "economic": 15245, "Ġmeteorites": 41977, "ATIONS": 28074, "Ġwrist": 18441, "Ġcriminal": 7939, "ĠRelationships": 22020, "^^": 23150, "Browse": 43679, "Ġer": 2812, "\"]))": 43194, "ication": 1629, "ack": 580, "Ġpreschool": 13837, "Ġdipole": 47045, "Ġomin": 42745, "uuid": 15042, "mont": 17637, "ĠSiege": 47862, "tower": 48805, "cy": 873, "Ġcellulose": 28553, "Ġouter": 8379, "ena": 6743, "oor": 2960, "upp": 16099, "sensor": 30678, "Ġstaple": 20753, "Ġfiref": 21423, "ĠClinton": 18623, "npy": 33400, "EDS": 49128, "choline": 42006, "Ġdisappeared": 15784, "Importance": 44782, "Ċĉĉĉĉĉ": 25576, "ROP": 43822, "far": 21900, "Ġspoiled": 48325, "Ġcatch": 6063, "possible": 36626, "ĠDomin": 17290, "iological": 8488, "Examples": 17921, "ERE": 14298, "ĠUVA": 44603, "ndarray": 15609, "Ġdependable": 43002, "Prog": 26660, "Ġrubric": 32040, "Ġmonounsaturated": 48657, "web": 12317, "Ġconsole": 20914, "Ġlarg": 1871, "icity": 29671, "ĠEast": 4365, "ĠMali": 33845, "Ġslowly": 6351, "ĠMus": 3606, "Ġintensely": 30781, "Ġembryos": 22042, "Ġdetoxification": 33136, "Ġgiraffes": 42945, "PlaneProtection": 36743, "ĠLim": 8694, "oph": 2400, "Ġtrem": 10276, "Ġfinish": 9199, "VR": 24048, "ĠAlways": 11078, "ĠContribut": 35822, "Ġstoring": 14304, "Ġfacet": 25485, "Ġworsened": 38027, "<|reserved_special_token_14|>": 49205, "Ð¾": 6485, "Qu": 6317, "ows": 2750, "Ġscaly": 44899, "leanor": 32493, "thouse": 29969, "defaults": 32979, "Ġoverwhelmed": 16026, "osit": 42898, "alias": 31570, "Ġpredicted": 9329, "Ġfishermen": 24133, "Ġblend": 12342, "Ġenterpr": 9374, "lam": 4130, "ĠGothic": 20806, "Ġgroin": 38380, "ĠRules": 19349, "ĠPlatforms": 40879, "ruct": 961, "ĠSam": 5457, "Ġproposed": 5433, "Ġlikewise": 17180, "Ġunwanted": 13143, "Ġassays": 29471, "Ġdifferently": 7534, "ĠSikh": 22363, "ĠMild": 34893, "ocon": 25231, "Ġhatching": 34998, "ĠWh": 1316, "elli": 17927, "ĠRaf": 37250, "ĠGolf": 40673, "Ġburst": 15434, "Ġassert": 2897, "Ġstabilized": 37575, "ĠWork": 5917, "Ġprogrammers": 23983, "ĠMLA": 30453, "Ġrestless": 33880, "Ġinferred": 31943, "bt": 10781, "ĠCon": 1071, "Ġcollars": 43989, "three": 16347, "Ġpavement": 30525, "attr": 7857, "Ġslowing": 21408, "iteration": 27026, "Âµ": 39269, "icating": 19999, "URCE": 26474, "Ġaccelerator": 37636, "Ġvigorous": 21323, "Ġsuppressing": 33293, "ĠSurrounding": 41021, "olution": 1696, "ĠCaliforn": 38613, "encoded": 35572, "Ġexchanging": 28218, "Ġinevitable": 14990, "mails": 47391, "wikipedia": 18035, "ihu": 34649, "Ġunexpectedly": 27700, "Ġpile": 16399, "ter": 352, "Ġcommittee": 8572, "posal": 28529, "Enjoy": 45422, "Ġobsession": 30539, "arrowing": 43004, "ĠChal": 32128, "Ġvows": 43155, "chosen": 48865, "Ġamps": 45517, "Ġaddictions": 42173, "OTH": 48234, "Ġstern": 26429, "ĠKub": 40175, "Ġpelvic": 23419, "Ġcolds": 29129, "ĠEngaging": 18026, "Ġsteamer": 46705, "ul": 336, "Ġconvoy": 44272, "ĠIND": 47380, "Ġcanned": 25690, "Ġfiery": 33028, "Ġgear": 10702, "ĠSlavery": 29275, "flation": 27420, "eveloped": 47003, "Ġ/>": 37516, "Ġprisoner": 22288, "Ġtransforming": 14702, "olition": 45051, "ĠAbe": 48049, "grain": 32700, "sigma": 19580, "anation": 23545, "having": 32120, "xy": 8860, "\"\")": 27359, "Ġautobiographical": 39209, "iteracy": 46647, "Ġshallow": 12120, "Ġofficials": 6229, "ULD": 45471, "optimize": 45900, "Ġpitched": 37896, "Ġcapacitor": 24949, "Ġrepr": 35688, "ĠMelissa": 44992, "ĠSpark": 27648, "Ġmixtures": 26884, "rop": 1561, "ĠCarn": 24752, "Gal": 26898, "Ġswitch": 6261, "uris": 8517, "Ġventil": 38596, "ĠEB": 46332, "Ġselecting": 10019, "capital": 29721, "ĠChic": 36506, "sent": 14812, "ĠMicro": 6067, "Ġdiffusion": 20583, "ĠMeg": 25065, "Ġcompr": 6884, "Ġcite": 13383, "##": 712, "ĠAnthropology": 30024, "check": 5875, "Ġawards": 18110, "iae": 20853, "Ġcanoes": 42422, "ĠIrvine": 44203, "ĠHenderson": 35390, "smart": 24914, "Ġaboard": 16717, "ĠLook": 8432, "Ġtraff": 37584, "atal": 6927, "Northern": 38416, "ĠRome": 7268, "ai": 2554, "ĠWildlife": 10620, "alination": 37427, "?\".": 36085, "linearity": 47165, "Ġbalance": 3630, "--": 423, "Ġvampire": 40591, "Ġblew": 32117, ">'": 21007, "ĠElect": 6072, "ĠTrack": 26960, "Ġconveniently": 36188, "Ġswallowed": 32105, "Ġbaseline": 15046, "ĠFrost": 33770, "pict": 36514, "Ġsulfate": 26231, "Ġentry": 6082, "Ġcompleteness": 38716, "ellant": 39413, "ĠAdolescents": 42468, "inflammatory": 13302, "ĠPB": 34753, "Estab": 29183, "Ġbrow": 8710, "roph": 5041, "ĠCreator": 23000, "Ġecclesiastical": 31586, "ief": 3234, "]):": 16334, "pars": 22416, "Ġfleet": 14954, "Ġneurotransmitter": 31027, "heastern": 13008, "Ġalcoholic": 24028, "noise": 21695, "Ġwt": 44245, "ĠErnst": 35424, "ĠGran": 20240, "formed": 10426, "[-": 9197, "Ġmyel": 22395, "charge": 8172, "ĠĠĠĠĠĠĠĠĠĠĠ": 16964, "ĠWire": 22484, "ĠDigestive": 41588, "min": 1659, "<|reserved_special_token_49|>": 49240, ",...": 40171, "ertain": 1327, "Ġatomic": 12000, "Ġammonia": 20136, "ordinate": 46424, "ĠHa": 10661, "Ġdocumenting": 23672, "Ġrevenues": 18498, "Ġrevision": 14204, "Spring": 32155, "Ġimitate": 31023, "olerant": 25218, "ĠAE": 40059, "ĠTrain": 21328, "ĠCCSS": 43358, "Ġjuices": 22536, "ADDR": 45092, "ĠSentence": 40699, "ĠClaud": 20062, ">>": 7791, "ĠDefinitions": 39331, "reset": 17901, "Ġtensorflow": 25090, "Ġnocturnal": 27715, "ĠBean": 39824, "Ġignor": 14382, "usoleum": 47867, "Ġcohesive": 26906, "Ġfilter": 5866, "Ġplotted": 29984, "genesis": 46407, "ĠGit": 24156, "ĠReplace": 30939, "ĠViv": 40747, "Ġexemplify": 35933, "ĠTours": 42978, "ĠHor": 9008, "Ġenlightened": 30377, "Ġtransatlantic": 46500, "è": 179, "Ġovershad": 34744, "Ġrain": 5249, "Ġessentially": 8009, "re": 257, "ĠMethodist": 28619, "operations": 36360, "ĠValent": 22488, "ĠCNS": 34418, "Switch": 44996, "ĠRoma": 29526, "Ġherds": 23679, "ilient": 13727, "Ġfather": 4083, "Ġpushed": 12227, "ĠJaw": 41351, "ĠNumerical": 47406, "Ġmultis": 40282, ",'": 7904, "Ġinher": 8024, "ĠAnalyzing": 24732, "perhaps": 27022, "ĠSTAT": 34824, "Ġpedal": 31326, "Ġheels": 29289, "Ġhomosexual": 27578, "Ġfloating": 12722, "arest": 11844, "Ġpistol": 48322, "Spain": 49028, "duc": 3029, "ĠAbuse": 20080, "short": 15539, "({": 10713, "ĠNeb": 27820, "ience": 3364, "ĠInvestment": 25549, "ĠCovid": 21139, "cra": 20231, "Jack": 32160, "ä¸": 7906, "Ġadolescent": 16192, "Ġsubt": 9240, "coming": 5524, "Almost": 18700, "opic": 7248, "Ġmedial": 31353, "Ġskies": 20215, "ĠNSAIDs": 44188, "ĠCommissioners": 46370, "ĠHypothesis": 41189, "Ġterm": 2115, "Ġrigid": 14358, "utt": 18201, "ĠCuba": 15553, "Finally": 7009, "ĠPalestinians": 26856, "Ġsymbol": 3573, "Ġcrawl": 26772, "ĠConcerns": 36052, "ĠStatus": 18893, "uchi": 32173, "although": 18497, "Ġbass": 17229, "owski": 21789, "osher": 38995, "omer": 9084, "Ġlisted": 6651, "Ġclimb": 16380, "Ġmovements": 4937, "Ġaust": 31785, "ĠWen": 42760, "Ġconcurrently": 34264, "Ġmoved": 4935, "Ġcall": 946, "ĠInstitution": 18097, "ĠSaving": 30212, "ĠHIV": 5459, "Ġchant": 39241, "Ġreducing": 4345, "PIPE": 39739, "Cool": 41979, "egu": 9503, "ĠLeipzig": 41798, "OSS": 33772, "ĠView": 10254, "'''": 11193, "ĠRush": 25162, "ĠMarco": 33205, "access": 9465, "],": 1750, "ĠDamascus": 35686, "Whe": 12515, "ĠTail": 33537, "Inc": 22318, "ĠNortheast": 25364, "av": 565, "Ġscoop": 29136, "ĠOM": 46559, "Ġyelling": 45734, "Ġ''',": 47939, "Ý": 168, "Ġexecutes": 45438, "Ġprovince": 10416, "Ġbub": 10569, "Ġserve": 3809, "dict": 3411, "Mass": 23742, "ii": 4877, "Ġbathrooms": 39871, "Ġtribunal": 42989, "RET": 27669, "Ġbs": 33450, "Ġsuccession": 17940, "flowers": 25266, "Ġrecur": 12807, "erobic": 21485, "phot": 22641, "lv": 29883, "ĠGR": 21418, "abus": 20844, "il": 301, "Ġintends": 30013, "Ġversus": 8863, "Ġantenna": 19676, "Ġcup": 7118, "ĠSpending": 42045, "Ġvictory": 9970, "ĠOlivia": 40418, "Ġwife": 6221, "IUCN": 45371, "Ġcounterproductive": 48688, "ians": 1506, "ESA": 37053, "toplasm": 37456, "Ġfarewell": 43994, "Own": 35175, "Ġdemanding": 13672, "ĠLav": 29914, "ĠGenocide": 38048, "Ġrepentance": 33755, "Ġastrophysics": 48526, "Ġcorridors": 30776, "Ġpickles": 48689, "Ġunraveling": 46376, "nick": 25166, "ĠNATO": 24286, "worthiness": 34900, "]": 77, "tre": 29864, "Ġwithstand": 18005, "uy": 16136, "Ġhens": 33640, "Ġdreadful": 46308, "ĠAmericans": 3913, "Ġenvelopes": 43382, "secret": 18874, "omac": 36326, "Ġlazy": 23790, "Ġhomosexuality": 30771, "Ġimminent": 27472, "Ġchallenges": 2529, "Ġwages": 12073, "Ġ(=": 32622, "aspberry": 25625, "Ġwetland": 23032, "------------------------": 21393, "Ġfertilizers": 18833, "Ġadventure": 6903, "Ġenergetic": 18774, "Ġdealers": 33453, "Ġgrie": 18693, "toplas": 46432, "ask": 1818, "imoto": 41945, "Ġcalligraphy": 35266, "ĠIcelandic": 37057, "servers": 36494, "auer": 20304, "Resp": 10598, "Ġcommem": 12590, "Ca": 26532, "ĠKer": 22632, "TO": 10179, "ĠWiley": 27161, "ĠDataset": 31399, "ĠBurmese": 37026, "Ġrelocate": 37925, "ĠSteven": 23244, "oro": 18105, "osexual": 17843, "Ġstrands": 20886, "Ġinitiate": 18248, "Ġpioneer": 19699, "ĠIndeed": 9274, "ĠCongressional": 28092, "ĠShop": 30308, "esta": 34318, "ĠObserv": 14112, "Ġgroove": 36571, "Ġpets": 9903, "Ġphe": 30035, "ptic": 8851, "retrieve": 48542, "Ġsadly": 31504, "Arch": 17936, "Ġmobile": 6220, "Ġwoods": 15629, "osteroids": 34617, "major": 23089, "ĠStark": 45911, "dated": 10525, "ĠGro": 23133, "markdown": 42447, "Ġleadership": 5694, "runs": 33096, "Ġvaccine": 5944, "edi": 2144, "otrans": 41060, "Ġsincere": 22796, "Mapper": 48269, "apped": 9441, "istles": 28818, "Ġdemolition": 35093, "illation": 20075, "ĠMarketing": 24064, "Ġgalax": 8436, "Ġcracks": 17770, "<|reserved_special_token_20|>": 49211, "ther": 479, "active": 5138, "ĠOst": 30603, "Ġcouldn": 6789, "ĠâĢĵ": 816, "Ġoutage": 48579, "Ġepistemology": 42481, "Cisco": 27684, "Ġretros": 24793, "Ġlawful": 34780, "Ġrefuel": 44885, "arianism": 35050, "ĠfaÃ§ade": 40852, "erian": 30254, "stuff": 35407, "Ġmorals": 28734, "ĠItalian": 7423, "Ġirregular": 12231, "berry": 9500, "Ġpulumi": 14632, ")|": 9756, "pled": 10429, "Ġgender": 4034, "Ġpurchase": 7131, "Ġdiction": 20670, "Ġenjoy": 2815, "Ġdiscipline": 9072, "acin": 42134, "ĠInteractions": 31660, "Flag": 35060, "Ġemblem": 29903, "ĠAttribute": 28651, "adequate": 45010, "authored": 33265, "Ġcalls": 6100, "Track": 35435, "ĠLabor": 7091, "coma": 16688, "ĠThey": 1069, "osphate": 26854, "Ġpilot": 10657, "olutionary": 30905, "filepath": 25081, "Ġdegrees": 5027, "ĠJak": 31618, "ĠLean": 39398, "Ġlayouts": 31362, "Ġsides": 5882, "Ġinstructions": 6388, "Ġrechargeable": 48696, "Ġbrig": 22824, "umba": 43000, "pies": 43890, "ĠOdyssey": 35952, "ortunately": 4813, "ĠNotImplementedError": 25320, "iage": 16257, "tall": 48332, "OF": 26138, "Ġmetadata": 11566, "Ġbarb": 41548, "bourg": 40914, "Ġstudied": 6030, "Ġaffects": 5547, "Ġgradu": 3370, "Ġchatting": 36498, "scre": 25841, "Ġreference": 4594, "Ġsinful": 38855, "Ġpublishing": 11443, "hold": 2326, "ĠRoads": 38298, "Ġfunctionally": 42026, "ĠPhil": 6480, "Ġ{:.": 38734, "Ġexpose": 15240, "Ġmoisture": 7542, "Ġcaptives": 43496, "Ġsc": 806, "Ġreproducing": 35521, "Ġcollide": 33925, "Ġlip": 9155, "Ġexaminations": 20307, "Ġsustainably": 28748, "Ġcuts": 10672, "Imple": 19396, "ĠFlag": 22050, "ringes": 34690, "adal": 32244, "Ġcookie": 20521, ")âĢĿ": 42931, "Script": 22194, "Download": 15880, "Ġoxygen": 4983, "ĠStreng": 18828, "ĠUganda": 21783, "parametrize": 27523, "ĠBurning": 39470, "ĠFrankfurt": 35737, "ahu": 21725, "Ġan": 354, "Ġwoven": 17942, "Ð²": 16464, "oux": 23335, "ĠHiggins": 48543, "Ġtrache": 34007, "Ġdetector": 17747, "ulary": 7324, "ĠKlan": 41119, "Ġbore": 15020, "ĠRegion": 15704, "Ġcommands": 10237, "register": 13744, "agogues": 37483, "rition": 3613, "ĠPly": 28855, "Ġflora": 17102, "acha": 45896, "Ġpathways": 11047, "ĠPatriarch": 35200, "ĠBotswana": 35979, "Ġbet": 666, "Ġappears": 4541, "Ġdepartments": 11609, "Ġconsolidation": 27965, "+\\": 42639, "Ġobjectively": 32287, "Turk": 43383, "Ġpiv": 11260, "Insp": 30848, "ĠEgyptians": 18908, "ertools": 32000, "/>": 23720, "ĠBonn": 43542, "formatter": 41765, "runk": 31085, "Ġration": 30884, "Ġcombat": 7604, "ify": 1282, "ĠFrequent": 36868, "Ġrediscovered": 47128, "hou": 18727, "Ġverb": 6936, "cipline": 25762, "Rab": 34750, "lock": 8343, "Ġditch": 33596, "Ġrest": 1532, "ÑĨ": 32233, "Ġglaucoma": 24760, "Engine": 23353, "ĠFinger": 38624, "Ġsynergistic": 45393, "raq": 9105, "KK": 45572, "ĠMint": 30418, "Ġstagnation": 41740, "Ġprovinces": 14641, "ĠShah": 18550, "Ġvague": 21765, "rix": 4303, "ibi": 47101, "Ġbarn": 20526, "Ġhunted": 26630, "Ġrushing": 31553, "Ġdrives": 11118, "ĠDoming": 47885, "rayer": 47247, "Ġimagin": 17450, "presso": 45754, "ollah": 47990, "aspberries": 44274, "classic": 48874, "Metric": 45296, "ons": 707, "Har": 25520, "Ġbrighter": 16613, "Ġmeticul": 16763, "lickr": 28438, "Turning": 46472, "Ġuncontroll": 34596, "preserved": 41729, "ĠFrequently": 35567, "Ġbeverages": 16434, "Ġfname": 29641, "Ġpossessed": 19066, "Ġstartup": 23355, "CHA": 42829, "rapy": 5223, "Sarah": 26676, "phen": 18861, "ĠGo": 2351, "savefig": 28464, "ĠÐ±": 46190, "Ġml": 19896, "Ġamend": 18340, "ĠWat": 19047, "Ġlabelled": 30039, "Ġfiltration": 20812, "ĠWhether": 8142, "Ġconsumption": 4426, "adapt": 22202, "ĠEyes": 29758, "ĠNeur": 46967, "Ġtalks": 11748, "ĠPrinted": 47342, "ĠSCI": 32658, "DN": 40559, "Ġherbicides": 28983, "Ġradial": 26426, "ĠPicasso": 35156, "Ġcanola": 40496, "\"\"\",": 33923, "ĠNam": 18620, "ĠLamb": 26285, "Ġteach": 3727, "enol": 42864, "ĠNegot": 34442, "Ġoff": 767, "model": 3980, "Ġendemic": 18534, "comings": 26704, "ĠKeys": 32638, "Ġwheezing": 37915, "corpus": 41853, "grave": 38881, "ĠConquest": 40436, "utor": 15535, "rele": 28220, "boarding": 28022, "Ġswitching": 15545, "Ġsynerg": 34487, "olyb": 43789, "Pe": 7166, "Ġfins": 25985, "Ġargs": 5291, "ultural": 19809, "sometimes": 23895, "Ġmucous": 29481, "ĠWebsite": 24959, "ĠNaz": 8333, "Ġlavish": 36479, "kwargs": 6453, "Ġestu": 32582, "ĠVander": 34199, "ĠBacterial": 40313, "lifting": 46343, "Ġapproxim": 48173, "hess": 16240, "ĊĊĠ": 8866, "Ġoutright": 24643, "Ġaxes": 16418, "ĠTutorial": 38353, "ashion": 6359, "ĠKill": 28469, "Ġlength": 3519, "Ġthere": 665, "sc": 1513, "ĠPopulation": 15902, "ÑĦ": 40600, "ume": 2522, "Ġstup": 20802, "ĠEuler": 41660, "Ġseasonal": 11147, "'^": 27516, "eer": 5551, "Ġsensibilities": 41450, "Within": 19074, "ĠDur": 17672, "Sche": 30562, "Ġfertilize": 40874, "seller": 49040, "ĠKnox": 34182, "Ġrevive": 34994, "Ġpredecessor": 28930, "coe": 41693, "+=": 32657, "ftp": 31166, "Ġprogrammed": 22916, "ĠAndrews": 31981, "ded": 4680, "Republic": 37074, "igating": 13263, "ĠPag": 33405, "ĠAging": 28323, "Ġnitrates": 41338, "ĠNev": 17305, "Ġnd": 27625, "pressure": 20188, "Ġelectrom": 12849, "ĠCommandments": 39997, "Sher": 47415, "Ġcalves": 25206, "asm": 9784, "Ġformulation": 21524, "olini": 36232, "Ġcompeting": 11433, "Ġalliance": 17913, "axanthin": 48748, "tis": 34818, "Ġanat": 11356, "today": 28195, "amin": 2576, "DNA": 17050, "Ġmicroscopic": 17839, "ĠAth": 18651, "Ġsexuality": 15488, "Ġdwellers": 33823, "çļ": 11484, "termin": 25785, "Ġauspices": 43825, "Ġsemi": 11174, "ĠDisney": 21182, "anco": 48971, "ĠToxic": 23380, "specs": 45849, "Ġcrafted": 20072, "Ġtransitioning": 29048, "Ġpsychiat": 11864, "Ġmun": 36556, "Ġspectral": 20123, "idious": 39270, "ĠDag": 45146, "Ġvertex": 24121, "Ġjew": 11159, "gm": 34948, "seg": 25184, "Connell": 47733, "Ġaccounted": 17973, "Ġ×Ĳ": 41771, "ĠPhar": 36797, "Ġmodelling": 22470, "Ġas": 347, "ĠTeaching": 12521, "ĠQuaker": 36541, "Ġcontention": 32724, "Ġloaf": 42126, "Ġtetanus": 44276, "program": 18041, "Ġunreliable": 29533, "<|reserved_special_token_75|>": 49266, "Ġcolonial": 7549, "safety": 39018, "equivalent": 45133, "Ġdumped": 33288, "Cre": 9442, "Ġasserted": 26405, "Ġreferendum": 29583, "Ġsmoking": 7213, "Ġaccomplishment": 24417, "Ġcommissioners": 41702, "assessment": 32464, "Ġcriticize": 35647, "âĦ": 13993, "Ġavid": 28545, "Ġteamed": 44069, "Ġairborne": 20548, "cul": 1788, "Pear": 46532, "Ā": 190, "ploys": 18191, "assignment": 38574, "ector": 10287, "Ġrhythms": 17743, "Ġboosting": 23201, "Ġbehav": 1776, "ĠGPIO": 36816, "Ġarrests": 36022, "ĠHolmes": 26306, "Ġextracted": 13852, "umption": 19636, "ĠPackage": 36781, "Ġascertain": 22727, "Inspired": 36168, "ĠMaid": 42093, "Ġpreparatory": 44600, "App": 6477, "Ġdivine": 9100, "hedron": 39513, "Ġaggressive": 9948, "Ġlethal": 21203, "ĠPay": 10983, "Ġepigenetic": 31642, "otations": 30974, "ĠSever": 31822, "Ġneonatal": 31391, "combo": 46828, "Ocean": 43370, "Ġellipse": 47372, "ELS": 37692, "Ġhatched": 38495, "Ġadhering": 22768, "Ì": 151, "Ġdw": 38407, "evol": 16606, "Ġagriculture": 5995, "ĠDAR": 40567, "Ġdominating": 37859, "non": 9033, "ĠOff": 5112, "Aside": 34039, "Ġstereotypical": 45405, "zyme": 10433, "measurement": 44841, "ĠNoise": 33713, "oxid": 30243, "Ġamazed": 25428, "Ġstip": 20570, "ĠShould": 9602, "Ġgross": 14346, "elsius": 19398, "Ġmischie": 41150, "ĠAnthrop": 19891, "ĠHenry": 6661, "Ġnominated": 31026, "acean": 47887, "gue": 34652, "Ke": 10011, "thirds": 17891, "Ġoranges": 27068, "ĠUnion": 4353, "Ġaddictive": 25601, "ried": 2041, "Ġfought": 9221, "ĠFAA": 42440, "ĠChristians": 8197, "Ġveins": 15062, "Ġfc": 46636, "ĠTranslation": 27292, "ĠWorldwide": 37539, "ass": 520, "Ġsailor": 42265, "aster": 1738, "Park": 34036, "Ġimperative": 16630, "Ġstriving": 20383, "hel": 2797, "ĠDuncan": 30286, "ĠParse": 44641, "mers": 11266, "hey": 31334, "ĠClosed": 47630, "Attr": 41441, "regn": 17028, "or": 270, "ĠScenario": 47951, "Ġtainted": 46861, "Ġpane": 43903, "Ġdiet": 2714, "Ġshoulder": 11307, "Ġminds": 7335, "Ġtopological": 44698, "Ġthirteenth": 40545, "ibald": 42340, "ĠTucson": 40892, "Ġpotting": 30459, "Ġpotential": 1566, "Ġpostal": 33014, "atized": 32982, "ĠDistrict": 8882, "ĠXen": 35231, "Ġsta": 24544, "Ġtraveling": 10323, "insert": 14095, "Ġvinyl": 34563, "Ġchampion": 21033, "Ġinitialize": 26506, "SE": 6493, "Appendix": 44338, "Ġfaint": 22495, "Ġpossibly": 6482, "<|reserved_special_token_72|>": 49263, "ĠLodge": 28419, ":/": 39885, "ĠSadly": 27886, "so": 559, "Ġled": 2842, "ĠFramework": 17401, "Ġlocalization": 34448, "Ġopposition": 9721, "ĠRegular": 10587, "Ġfest": 7799, "just": 3189, "ĠFiber": 32433, "ounc": 4068, "ĠFilm": 21805, "over": 1400, "Ty": 35251, "Ġru": 7350, "Ġlotus": 40572, "Ġemitting": 31014, "az": 1437, "Ġprincipal": 8532, "\"âĢĶ": 36043, "Ġinstru": 3909, "Ġsouthward": 39203, "Goal": 44474, "Ġdepos": 6919, "spring": 37311, "ă": 193, "čĊĉĉĉ": 39843, "Ġpc": 31915, "Ġnurturing": 15550, "Ġrealm": 7815, "!')": 32022, "ĠNice": 44558, "ĊĠĠĠĠĠĠĠĠĠĠĠĠĠĠĠĠĠĠĠĠĠĠĠĠĠĠĠĠĠĠĠĠĠ": 20098, "ĠLogical": 45934, "Ġgran": 11306, "insured": 46727, "Ġbible": 38132, "Ġrestrictive": 24363, "Ġchick": 7043, "Ġpainter": 17970, "Ġpion": 9305, "Ġconfigurations": 19337, "Ġregimes": 18845, "Way": 40689, "Ġencl": 40326, "Ġcreep": 27757, "oters": 32292, "Ġmodest": 15665, "ĠSitting": 45501, "Ġdent": 7286, "Ġwrong": 4061, "Ġten": 3772, "Ġmarkup": 38357, "Princ": 29468, "Ġreminis": 20779, "[(": 25315, "erally": 9958, "Ġsugarcane": 43120, "consciously": 30062, "Ġtedious": 31641, "Ġrepetitions": 36497, "ĠEmpowerment": 37769, "Ġfootnotes": 47746, "Ġcontrasting": 19986, "ird": 2307, "ĠSword": 48097, "ĠAT": 11133, "ANK": 30483, "ĠVisitor": 48775, "lex": 2480, "ASS": 15844, "dn": 25125, "Ġdesk": 10917, "ĠConventional": 41291, "manent": 39917, "Ġverse": 12168, "ĠPseud": 29207, "ostic": 7892, "prudence": 32361, "Ġtownship": 31563, "faced": 33114, "Ġmoistur": 36600, "Ġcancellation": 43220, "estamp": 12042, "ĠBirthday": 45599, "licting": 38564, "ocean": 36603, "Ġfo": 8675, "Ġriparian": 33869, "Ġanecdotal": 38391, "Mor": 24820, "Ġsmel": 40032, "ĠDescartes": 36040, "Ġremedi": 28644, "HET": 44879, "Pref": 29039, "ĠPediatr": 45891, "ĠHert": 34185, "Ġaggressively": 30063, "exp": 5812, "ijing": 17736, "akistan": 8401, "Ġlaws": 3707, "mediately": 27440, "ĠHelp": 9915, "TC": 12373, "ules": 2310, "Ġgenerators": 19421, "Execution": 31322, "ĠConstruct": 21839, "Ġimaginable": 49054, "Seq": 28204, "å¿": 41467, "ĠAnimals": 16319, "ĠEducational": 13901, "ĠFountain": 49042, "Ġelm": 48772, "Ġcheckups": 34233, "ĠLiver": 19116, "erning": 45038, "á¹Ń": 37037, "Ġextensive": 6656, "hattan": 21261, "ĠSPD": 42533, "FLAGS": 39948, "chev": 39758, "Ġstores": 7821, "Ġmoll": 28385, "Ġappointed": 9951, "Ġseniors": 18980, "chez": 46487, "Wow": 32373, "reviewed": 21200, "Ġadherence": 16191, "ĠBenz": 47113, "ĠVel": 22010, "Ġcountless": 8943, "ĠHighlands": 39826, "Ġmaneuver": 22481, "Ġmedium": 5641, "Ġneuro": 5233, "Ġsticking": 21647, "security": 10128, "Ã¡s": 31798, "vat": 44951, "Ġpassengers": 13913, "tropical": 45157, "itzerland": 14459, "Ġnotebooks": 31837, "Ġrepel": 35698, "\"))": 11121, "Ġcultiv": 4980, "fs": 9269, "Ġdisciples": 17056, "ICs": 47108, "Ġsort": 4440, "coated": 37538, "Ġtea": 7188, "ily": 878, "Ġinstrumentation": 30697, "Ġshields": 30553, "Ġremove": 4351, "Ġsoup": 14562, "Ġbelongs": 12698, "Ġchess": 22628, "ĠData": 4712, "ĠBolshe": 28071, "ĠIsles": 32174, "stderr": 26025, "Ġfollow": 1066, "ospels": 26187, "='/": 43538, "XXXX": 21996, "Ġguarding": 37453, "Ġdrifting": 39157, "lift": 40172, "Ġscents": 37805, "Ġfog": 19998, "remely": 38049, "Ġterrace": 46581, "ĠSaturday": 14986, "Ġunconstitutional": 35201, "lexia": 21970, "framework": 27194, "locale": 48517, "ĠMontreal": 21191, "Ġtorque": 23264, "Ġtheorems": 46022, "Ġheaviest": 42306, "Ġdopamine": 19764, "<row_5_col_5>": 49181, "Directory": 34275, "unpack": 35203, "ocom": 23179, "~~": 9493, "...,": 27040, "Ġfreely": 10493, "Ġlosses": 8528, "Mah": 30995, "Bank": 35654, "Ġseabirds": 46272, "Ġchim": 13605, "ampunk": 48812, "Ġlowers": 24208, "Ġall": 511, "ĠCairo": 29017, "BB": 20369, "Ġgeneralized": 24189, "Ġaqueous": 31839, "ĠUSGS": 29995, "Ġinaccur": 21060, "Ġaneur": 35603, "Ġ),": 8032, "ALS": 31927, "releases": 47779, "ĠSend": 25054, "ilog": 40209, "ĠLAN": 32037, "Ġstepping": 18668, "illance": 10194, "Ġbracket": 36573, "Grade": 28692, "Ġsyst": 35307, "ĠIntroduction": 6682, "measures": 31710, "astically": 15077, "ĠLe": 2250, "pro": 1228, "maximum": 30898, "ĠFriday": 11655, "ĠIDs": 40442, "Ġshielding": 32477, "seconds": 21265, "ĠErasmus": 46358, "Ġfamed": 31253, "Ġstarvation": 25060, "Ġwipes": 43917, "Ġhypert": 12768, "Ġfigured": 21394, "Ġassessment": 4804, "ount": 598, "articles": 14073, "Ġprec": 3146, "ensitivity": 29160, "Ġexempt": 19863, "ĠNorfolk": 29059, "ommy": 19140, "Ġanthology": 41989, "tick": 20166, "ĠNP": 30017, "sand": 39985, "Ġstinging": 44732, "Ġpurs": 8210, "Ġrye": 31902, "Ġjoyous": 39668, "Ġsanction": 27306, "ouns": 17216, "MC": 12079, "Ġphrasing": 44903, "ĠDivision": 9760, "Ġsou": 5207, "atre": 11734, "players": 35775, "ilation": 7566, "iz": 463, "ampton": 32197, "ĠComfort": 36525, "Ġpregnancies": 26107, "Ġprecursors": 35707, "ĠEfforts": 28167, "ĠFact": 8704, "ĠOutput": 21367, "ĠPenn": 7873, "Ġrode": 28775, "Ġreal": 1345, "ĊĠĠ": 11181, "Ġassure": 23478, "ĠHeads": 48722, "ellery": 38663, "ĠGenerator": 35786, "Ġprivate": 3646, "ĠEff": 21555, "ulsed": 48944, "Ġvice": 12010, "Ġtradeoffs": 46990, "Ġbenefit": 3724, "Ġcompositions": 16690, "Ġborne": 24086, "Ġgrief": 15684, "ĠWeed": 44983, "ĠBasically": 24640, "Ġillicit": 25882, "datas": 47402, "<jupyter_script>": 15, "eless": 5637, "Component": 35082, "ĠShin": 37569, "Ġlift": 11732, "ifier": 6433, "ĠHC": 40839, "ĠFor": 1068, "Ġloves": 14640, "igion": 13677, "ĠMagic": 19821, "ĠEmperor": 12702, "Ġbanner": 29749, "Ġrevolutionary": 11951, "Ġconfig": 4032, "Ġrefractory": 41963, "Ġleaf": 6695, "('.')": 40678, "Ġambulance": 40039, "Ġbags": 10720, "urated": 12967, "Ġconvinced": 14058, "Ġdonations": 22179, "ĠSind": 38290, "hearted": 20461, "soriasis": 23643, "farm": 31950, "_'": 39710, "ĠWriters": 25727, "owell": 38159, "cs": 5296, "eroon": 34734, "Ġpregnant": 8596, "Ġmetro": 38356, "Ġhorizons": 20743, "Ġprivileges": 19195, "Ġpens": 24193, "Ġoutcome": 7616, "ĠSince": 4311, "Ġexplos": 12888, "leneck": 38824, "Ġbowling": 47794, "Ġmira": 12343, "ä¿": 29767, "Ġstatistical": 9598, "akings": 46294, "Ġgull": 46638, "aver": 10247, "Ġinfected": 6701, "Ġpulling": 15662, "Match": 32827, "ĠLabrador": 38319, "Ġtragedies": 34975, "ĠEuclidean": 39056, "ORY": 20265, "Ġinheritance": 17740, "Ġpsychoactive": 45756, "ĠAP": 6594, "Sh": 4370, "ĠColorado": 10052, "ĠFiscal": 45161, "ĠGom": 44692, "img": 6266, "Ġcyan": 21603, "Ġowes": 35776, "Ġtuna": 25757, "aven": 11204, "EU": 25953, "Ġtarget": 2370, "ennon": 25121, "Ġflare": 26039, "Ġic": 17527, "Ġinherited": 13279, "Prop": 27355, "Ġportions": 12221, "orithms": 30621, "osity": 10553, "ĊĠĠĠ": 472, "querque": 47995, "<|reserved_special_token_24|>": 49215, "Ġhab": 2655, "Official": 46631, "/<": 31194, "ĠThe": 378, "Ġtougher": 35802, "Ġdilution": 38127, "ocking": 8164, "Ġrecounted": 44040, "urgeon": 41011, "Ġphenomena": 8783, "ĠKad": 45269, "Ġrepeal": 41912, "icious": 5564, "Fields": 43633, "Mex": 26863, "TP": 7148, "ĠAnk": 36709, "ondo": 31917, "DES": 47983, "Ġsymphony": 34396, "Ġvisits": 10455, "astics": 10980, "ĠPron": 35168, "ĠKatrina": 34573, "ĠPanic": 44323, "ĠVis": 6398, "Ġepisode": 12592, "orney": 12626, "Great": 15635, "Ġnephew": 32327, "Ġspo": 28143, "Ġtemper": 2000, "ĠDefining": 20717, "elin": 32074, "Ġcharg": 5234, "}_{": 37581, "Ġstaring": 29041, "Ġadvant": 3602, "dump": 19488, "Ġflushed": 44752, "Named": 41789, "bas": 9317, "Ġconcerns": 3863, "Score": 32226, "decoder": 33482, "Ġundert": 8093, "insically": 37089, "iges": 44747, "elescope": 19377, "Ġsubsets": 38974, "ners": 2776, "Ġspeculated": 35431, "ĠAmes": 41642, "isol": 15660, "Ġhumili": 34319, "disciplinary": 12881, "iculate": 44975, "Ġalkal": 16307, "provided": 41272, "ĠSTUD": 38961, "ignt": 13311, "Ġedict": 46516, "Ġsprings": 18407, "gaard": 45634, "ĠJew": 2854, "Ġbirthday": 15208, "ĠPeoples": 24220, "quit": 8117, "Ġreplic": 16550, "be": 1425, "Ġtransporting": 23981, "Ġmelodies": 25366, "aml": 15149, "Ġlabor": 3496, "kines": 34599, "ĠCCT": 48114, "Ġrestoring": 18195, "Ġsinuses": 39316, "inning": 29397, "èĥ½": 47093, "ĠTopics": 21278, "ĠJenn": 20750, "Ġpituitary": 29961, "Emily": 43751, "wi": 37217, "vals": 9147, "rometer": 42240, "vie": 35346, "Ġmarkings": 23465, "ĠPfizer": 42929, "Ġendured": 25930, "Ġchosen": 5958, "]}": 28852, "ĠChem": 17536, "cerity": 40470, "needs": 44790, "ificial": 5216, "Ġshorthand": 48823, "ĠInterface": 27542, "urers": 21422, "Ġassemblages": 46901, "istance": 2495, "Ġpolitical": 2356, "Ġnumbness": 28888, "Ġkrill": 45253, "à¥ĩ": 30581, "Ġmisleading": 20613, "oha": 41956, "con": 607, "Ġtasty": 17487, "Ġwhy": 1701, "Ġdjango": 10508, "Tor": 29264, "ĠMarkov": 48713, "Ġorganizes": 43049, "Ġcipher": 33769, "Ġgoss": 33749, "cre": 668, "ĠDen": 8732, "bird": 14833, "Ġtubes": 12495, "otourism": 43093, "King": 19787, "Ġpostp": 26151, "roxy": 38178, "ungs": 38472, "Ġstrip": 13643, "Ġillustrates": 15018, "lins": 22257, "çĤ¹": 44083, "pur": 12291, "veau": 47739, "Ġmonothe": 38292, "Ġdiversity": 4692, "Ġment": 6018, "wre": 30032, "Ġfrontline": 46704, "uka": 29043, "curricular": 24572, "Ġsurname": 25519, "ĠVal": 3596, "alling": 15353, "ineteen": 32297, "Ġto": 288, "Understand": 40287, "ĠOrwell": 43378, "ĠProducts": 18551, "×¨": 30825, "Ġyourselves": 33722, "Ġmiscon": 13936, "Ġstaging": 29195, "ĠYesh": 46770, "Ġgenealog": 21335, "transition": 38064, "Ġob": 794, "Ġstopped": 8976, "Ġsnapping": 45184, "Ġmotorized": 48174, "ĠNOTE": 34079, "Ġbreakdown": 14486, "ouncils": 21577, "Her": 13860, "Ġbrush": 8237, "Ġassess": 2570, "Ġstories": 2684, "ĠLithuan": 23048, "ĠZed": 46320, "ĠSSH": 38214, "Ġshady": 38635, "Ġcountry": 1798, "much": 32218, "ĠHudson": 18657, "stand": 879, "Ġcannab": 13630, "ĠAmbassador": 37497, "Sensor": 46822, "irl": 19802, "ĠPub": 7300, "Ġbathing": 25245, "Ġpostdocs": 43606, "Ġnearer": 35678, "Ġcolic": 47837, "Ġfollic": 22579, "ĠBaroque": 29319, "Usage": 37137, "Doc": 16349, "playing": 26517, "ĠLudwig": 31260, "Ġhang": 12193, "Ġindist": 36569, "Ġrectal": 40596, "Ġfisher": 10347, "Ġhell": 20031, "drained": 36849, "parent": 5667, "eret": 46267, "]|": 26822, "Ġstalled": 45515, "ja": 10824, "Ġnightmares": 36645, "ĠSimply": 16228, "ĠRev": 4827, "Ġquant": 3324, "Ġoscillation": 43724, "ĠEpidem": 22574, "Single": 29708, "crypt": 36438, "Ġtransformational": 46935, "idopsis": 39451, "Ġdamages": 14591, "tools": 19746, "ausea": 13881, "Ġdeficit": 16572, "cas": 27188, "ĠSG": 38559, "ble": 854, "EPS": 42733, "ĠAfterward": 29018, ")).": 15723, "Ġreusable": 23062, "Ġconsequ": 3611, "enoids": 37720, "liest": 33200, "=[],": 39381, "instances": 32429, "idine": 27345, "ĠHiggs": 38669, "Ġasym": 15035, "Ġrev": 2636, "ooting": 19404, "ĠAO": 48848, "heumat": 17395, "bling": 14967, "layer": 9179, "pard": 45761, "oi": 17780, "bright": 29778, "category": 15833, "Ġseaweed": 30702, "Ġencoded": 21121, "Ġprophet": 18111, "han": 10936, "Ġpsychiatrist": 32934, "connected": 8222, "ĠPy": 4429, "Ġfreshness": 39247, "ĠGig": 44827, "ĠNurs": 15940, "Ġsworn": 39745, "ĠExperiences": 27916, "VIII": 33527, "ĠPK": 32399, "ĠArizona": 11947, "yre": 46767, "Ġshortage": 17281, "ĠNET": 46347, "Ġalongside": 6719, "ĠLemon": 39701, "ĠRoy": 19869, "Ġdaunting": 20472, "ĠInstagram": 23653, "ariance": 28130, "Ġpropaganda": 17155, "ĠPeg": 40433, "riet": 28157, "ĠA": 330, "Ġconservationists": 36544, "ase": 576, "iction": 2032, "ĠNecessary": 40402, "ĠECG": 42163, "fol": 9360, "Ġgram": 7433, "Ġtortured": 35665, "Var": 19391, "Ġ'':": 42169, "craft": 4224, "amer": 41582, "Ġinsur": 29461, "ĠJimmy": 33988, "Ġengagement": 6239, "Ġche": 1089, "Ġplayful": 25695, "Ġimmun": 6201, "Ġlifecycle": 30839, "Ġmetall": 15622, "ĠDisability": 26305, "UL": 6565, "Ġintermediaries": 42430, "development": 22563, "ismatic": 27731, "Ġscav": 26551, "ĠIntervention": 28981, "Ġpolyps": 34995, "Ġsmile": 13536, "omile": 47831, "Release": 43998, "<end_of_utterance>": 49279, "Ġmistaken": 17675, "ITES": 31612, "Ġfirmware": 29218, "ĠPG": 39411, "Ġpatron": 16636, "validation": 21592, "ĠBurton": 41134, "Ġhog": 40640, "ĠVehicle": 27405, "pre": 1702, "ĠProviding": 23413, "Financial": 33683, "Ġintact": 14331, "Overall": 20832, "âĢ": 321, "ĠCalculating": 44224, "ourag": 10881, "dst": 28453, "Ġpossessions": 21074, "Elect": 15131, "NE": 16472, "Ġhearing": 5364, "Ġwinged": 36647, "Put": 22030, "Ġchose": 8984, "Ġkittens": 36399, "orks": 2689, "Ġsmokers": 20338, "Ġcurious": 7436, "Ġmissp": 47894, "orp": 23598, "ĠThursday": 14963, "inj": 29040, "Ġsuppresses": 49091, "Ġassignment": 9554, "Ġsprout": 36190, "Ġé": 30866, "Ġtide": 17662, "ĠRoe": 48116, "[[": 32803, "ĠCrossing": 44966, "Ġblu": 17126, "brief": 48458, "Ġwork": 746, "ĠLands": 14231, "^^^^": 37049, "Narr": 47564, "power": 8857, "Ġ\"/\"": 47024, "idge": 3177, "BOT": 42416, "Ġseats": 14670, "Ġsew": 14847, "is": 271, "Ġprejudices": 26715, "Ġtxt": 33513, "ĠEuropa": 36886, "fluid": 29308, "Ġamended": 26237, "Ġheavier": 17551, "ronics": 20815, "Manager": 18860, "Recently": 23595, "ĠKafka": 47531, "mercial": 15160, "Ġservers": 12904, "ĠAdela": 35401, "Ġgon": 21600, "Ġbelievers": 17325, "ĠOpening": 38895, "ĠĠĠĠĠĠĠ": 415, "Ġspans": 22389, "Graph": 17327, "ĠInsect": 25527, "Mission": 48860, "uf": 15094, "economics": 42799, "ĠPopular": 17961, "thony": 17017, "rames": 16813, "liers": 12629, "Ġgeometric": 15932, "enhower": 29413, "Ġingest": 35328, "ĠXY": 33739, "informed": 23036, "ĠArmy": 6290, "ĠGraph": 12423, "gerald": 33958, "Discussion": 33634, "ĠTE": 24996, "Ġstarter": 28822, "Ġalready": 2221, "ITE": 20451, "incial": 14842, "Friday": 33709, "ĠAges": 13192, "ĠEmerson": 37356, ".(": 16259, "Educational": 45409, "ĠItem": 27195, "Ġcrypt": 9450, "Ġdread": 21836, "thus": 29159, "Ġgoes": 3935, "Ġdiscussion": 4572, "Ġannouncing": 34769, "Ġguilty": 14675, "Ġkeep": 1446, "Ġstyle": 3997, "Loader": 25626, "Ġbrine": 36839, "Ġcareers": 11326, "ommod": 7151, "Ġdorm": 16800, "Ġaugmentation": 45936, "Ġdistributes": 45518, "ĠAdvoc": 26224, "Ġdescrib": 2096, "ĠAssist": 36540, "Likewise": 44171, "ĠTraumatic": 48204, "Ġjudge": 8048, "official": 26361, "ĠInj": 19561, "Opt": 13928, "Ġpicking": 15522, "ĠChir": 47016, "neapolis": 32280, "ĠModeling": 26209, "Ġvector": 8431, "bugs": 29586, "Ġnonfiction": 19479, "plementary": 38091, "ĠØ": 14787, "nested": 44821, "Ġguided": 11614, "Ġparach": 29286, "Bit": 28168, "Ġapplications": 3253, "PAA": 41551, "github": 15585, "Ġhalt": 21872, "Ġlesser": 13478, "Ġpassing": 7685, "BN": 6409, "Ġmicron": 26694, "Ġdeferred": 48033, "Ġof": 282, "ĠUsing": 5064, "phones": 10387, "Ġunions": 16010, "archive": 24806, "ĠDix": 45379, "Ġbusiness": 1861, "Ġequipped": 9031, "ossible": 5424, "ĠTac": 37256, "Ġfamiliar": 4942, "Ġcoursework": 23839, "âģ": 32571, "Gard": 30347, "ipples": 30044, "Ġthence": 39089, "ĠErn": 19401, "Ġ'.": 12125, "derr": 19859, "ĠInstructions": 36933, "Ġalleged": 14002, "Ġpayable": 42406, "catalog": 41325, "Ġtweets": 32331, "Ġcov": 14476, "Ġstorytellers": 45200, "ĠCharlotte": 23504, "Ġdecorating": 36872, "ĠMarker": 40215, "Progress": 37359, "Ġact": 705, "ysis": 1854, "Virgin": 39671, "BACK": 32910, "Bl": 6353, "Ġcomputed": 19551, "Ĝ": 213, "Ġsq": 15375, "ĠPolitics": 17123, "ĠPresidency": 41269, "Ġdyslexia": 26950, "binding": 26057, "Ġencrypted": 23711, "ĊĠĠĠĠĠĠĠĠĠĠĠĠĠĠĠĠĠĠĠĠĠ": 14446, "Ġfalls": 8227, "estone": 10885, "ĠLeicester": 41054, "Ġwidespread": 7123, "inee": 33243, "ĠPLoS": 27585, "ĠSignificance": 22507, "Ġpopularly": 33915, "ician": 5792, "Ġprosecutor": 43040, "eforestation": 46338, "Ġart": 984, "Ġyellowish": 31137, "ĠBreat": 23336, "Ġcalibration": 22361, "ĠLeaders": 26890, "ĠAfrica": 3518, "enc": 2308, "Support": 28605, "ĠDalton": 45195, "Ġlungs": 9351, "Ġthing": 2775, "ĠBrom": 40986, "EL": 4210, "Ġsucculents": 42590, "Ġcritters": 32906, "pk": 17508, "Ġeducator": 20676, "oscale": 30484, "AGES": 31503, "ĠMuss": 33443, "Ġdrowsiness": 45781, "Ġhiking": 20480, "itory": 7558, "ĠEncryption": 48733, "grown": 21776, "Ġreferred": 5124, "Ġactivity": 2313, "ĠComponent": 32920, "Ġimpetus": 36708, "Ġaquifers": 35810, "Ġfountain": 29905, "Interest": 19340, "ĠU": 514, "Ġbyte": 23860, "Arg": 38654, "ĠCathedral": 20537, "uba": 18144, "entional": 28838, "Ġgreatly": 6899, "ĠStev": 19749, "ĠDynamic": 21352, "Ġentang": 23828, "%,": 9812, "Ġsteadfast": 30246, "Ġreacted": 35000, "ĠDublin": 22231, "ĠDick": 15992, "Ġarches": 28012, "endas": 28351, "Ġcorrections": 25783, "error": 2742, "care": 3325, "Ġchapter": 3532, "Ġpolythe": 44601, "Ġmargins": 19274, "Ġdev": 1534, "ĠNovember": 4745, "Ġentirety": 28971, "rice": 31184, "Ġviz": 32191, "ĠGreenwich": 41318, "')),": 20741, "ĠZionism": 44409, "gate": 14717, "Ġtimeline": 17239, "Ġbill": 3093, "AB": 5431, "Ġconcurrent": 20468, "Ġceremon": 8506, "ĠEducators": 31665, "rout": 22902, "Ġwine": 8289, "İ": 232, "nowned": 13355, "Ġdecorated": 17507, "Ġinfancy": 24126, "rizona": 11546, "Ġboto": 48003, "Ġuniverses": 41395, "Ġcheek": 31254, "Ġdelivers": 21959, "Ġopponent": 18076, "Ġcohes": 15477, "ĠBloomberg": 39198, "ĠBrist": 24569, "Ġcourtesy": 17674, "ĠBitcoin": 16217, "ffes": 37353, "ĠSubjects": 38962, "Ġhelpful": 5356, "orch": 4560, "Ġslowed": 25644, "Ġwildflowers": 40552, "ĠBeat": 22186, "LL": 16421, "ĠFloor": 41695, "Creation": 47558, "Ġsocks": 27872, "ĠThoughts": 35977, "Ġcherished": 20724, "coins": 33771, "Ġcontaining": 5085, "ĠPhysicians": 31772, "ĠFlags": 45522, "Ġstorytelling": 9611, "Ġguerr": 31442, "ĠWarning": 32260, "Ġpic": 18662, "Ġmul": 14907, "Ġautosomal": 44035, "ĠAnnex": 45238, "truth": 28637, "rinted": 24709, "ĠIcon": 30396, "Ġhypothesis": 9704, "Fi": 14366, "ĠOper": 8179, "Ġpulmonary": 17490, "ĠHarv": 8966, "pygame": 45538, "ĠKauf": 46291, "Ġhusbandry": 42056, "Ġchakra": 46961, "Training": 27706, "ĠTelevision": 32048, "strings": 26540, "Ġshell": 6528, "regression": 45454, "eval": 9719, "ĠQuarter": 21666, "Ġrefuse": 16907, "Ġworkforce": 14150, "Ġhopeless": 25134, "Ġdanger": 7741, "isphere": 14051, "Ġskeptical": 23571, "Ġrenovated": 45260, "Ġdepictions": 24950, "pson": 10739, "ĠDakota": 16914, "Ġsaying": 4976, "ĠDr": 2503, "iverse": 4892, "Ġmemorize": 30082, "Ġhappens": 4283, "ĠSlide": 35748, "heets": 40601, "ĠCapture": 40004, "rece": 29356, "Ġmoderately": 25902, "Ġcamera": 6715, "Unit": 16047, "ĠTEXT": 48962, "Ġpurchased": 10610, "Ġinterplay": 17861, "ology": 899, "ASK": 34260, "Ġefforts": 3016, "able": 515, "Ġgoals": 3949, "Ġendocrine": 24141, "Ġrequires": 3073, "Ġplugged": 35903, "ĠSerb": 26029, "otics": 18147, "Ġavoc": 20061, "ĠJay": 19414, "quarter": 31830, "Ġattrs": 33829, "Ġpollinator": 45400, "ĠLuckily": 33415, "Ġclay": 9826, "Ġinvolvement": 9040, "Ġfant": 6855, "ageal": 25372, "![": 21653, "Ġnorthward": 34061, "ure": 424, "!),": 33887, "thur": 10993, "rocytes": 37386, "ĠAllies": 23988, "Ġfaithfully": 40537, "|'": 7619, "ĠVincent": 25422, "ĠContinued": 42854, "Ġswallow": 13068, "ĠAlaska": 11431, "Ġvas": 23481, "Ġtreats": 12900, "Ġchestnut": 38141, "ĠSample": 21530, "ĠkWh": 38924, "Used": 35950, "Ġaffirmation": 40100, "Ġcompet": 2580, "apagos": 39011, "quate": 43390, "precision": 29100, "Ġcourtship": 39055, "ĠHu": 12449, "neath": 15773, "Ġdiscriminated": 42188, "Ġneurodegenerative": 35157, "ĠVisitors": 31777, "Ġcried": 31592, "ĠHighlight": 44202, "ĠOperating": 28914, "Ġargues": 12253, "ĠEthan": 46834, "raham": 10608, "ĠINTO": 37238, "feats": 40358, "Ġtongue": 10663, "Ġsatisfies": 38475, "OWN": 22837, "Ġfixation": 32784, "')": 1465, "composition": 41690, "ĠVol": 5153, "ĠNRC": 44234, "Ġconvened": 35122, "Articles": 44239, "ĠAcadem": 6179, "Ġretained": 15347, "Ġsmartphone": 17030, "oices": 44729, ".*": 12907, "Ġlaterally": 47058, "require": 38484, "por": 1354, "Ġins": 973, "Ġthrives": 30571, "Ġgenetically": 13541, "<row_2_col_6>": 49164, "atchewan": 31224, "ĠSamuel": 12407, "Ø§ÙĦ": 22208, "Friends": 40834, "ĠProspect": 38609, "Trust": 44108, "furt": 31761, "à¸£": 44701, "borhood": 33257, "Loss": 24609, "ĠRhodes": 28153, "iens": 20839, "Ġprophes": 40355, "ĠPRE": 33460, "ĠEdited": 44087, "ĠGenerated": 34517, "Ġshook": 31656, "Ġjudgement": 23701, "Parent": 17806, "LOGY": 39162, "Ell": 36602, "oooo": 40316, "Ġeasing": 39551, "ĠPere": 24435, "Regression": 39183, "Ġresolves": 43053, "etal": 23014, "rapers": 36899, "Ġparks": 10363, "Ġraz": 36699, "ĠCommunications": 17952, "ĠThirty": 32101, "Ġestablished": 3251, "ĠDec": 6069, "Ġspacing": 19972, "activities": 45672, "ĠSecondary": 22111, "ĠLast": 8114, "Ġplasmid": 46843, "enas": 42254, "Ġdign": 12415, "Ġorthodox": 25763, "ččĊĠĠĠĠĠĠĠĠĠĠĠ": 25457, "ĠPre": 3000, "Ġaccessible": 6962, "prisingly": 25710, "Ġwiden": 41708, "Ġcut": 2304, "Ġcoincided": 38382, "fters": 41210, "ĠUzbek": 35653, "ĠNutrients": 48992, "Ġyr": 39533, "Simple": 24893, "Ġspectrum": 8439, "itud": 2331, "ĠTime": 5885, "body": 5226, "ĠMahal": 45008, "Ġpresently": 25856, "ĠCrab": 44656, "Ġoutrage": 27599, "Ġeffects": 2165, "ĠUnknown": 34695, "Ġexcitement": 10434, "Ġdrier": 31494, "Ġlegislature": 19125, "Ġcoer": 45535, "ĠReyn": 26449, "International": 19085, "Citation": 33550, "forests": 27970, "ilus": 36628, "ĠMario": 38575, "Ġdar": 41734, "asset": 27556, "Ġrapp": 26510, "Ġmature": 9945, "ĠDouglas": 16677, "Ġleukemia": 22811, ":'": 32266, "Ġdisc": 937, "available": 14036, "brandt": 46122, "ĠUsually": 14248, "Ġreligiously": 47974, "Ġdeepest": 25849, "Ġrel": 716, "DD": 18817, "Ġmatplotlib": 14671, "ĠWash": 21886, "Ġlighting": 8703, "Ġgardens": 9798, "Ġinterview": 5473, "ĠWild": 6668, "ATM": 41167, "Ġresist": 5571, "ĠAtlantis": 37921, "response": 7639, "actic": 11848, "ĠEvans": 22782, "Ġnumeracy": 43354, "ardships": 22903, "Ġretrieve": 19662, "Ġdyeing": 46858, "Ġessay": 3794, "ĠIntellectual": 27949, "Ġparalysis": 23360, "Ġkilow": 37138, "odge": 14275, "Ġvascul": 48592, "Ġimpacts": 5029, "Ġcaring": 12095, "Ġscrew": 21665, "Ġtyp": 1304, ")>": 46153, "ĠCrisis": 20588, "Ġhindered": 38637, "Ġchilled": 43392, "Ġcustoms": 9347, "sequent": 32303, "mock": 11413, "Ġstepper": 44011, "aska": 8635, "ĠYin": 37392, "ĠRelax": 37117, "Ġbulb": 16587, "ĠSoftware": 12316, "Ġharness": 10431, "bell": 10160, "Ġpenguin": 35084, "Ġproblems": 1828, "Ġbio": 6596, "ĠComet": 38650, "Ġpancreas": 19860, "orget": 38131, "ĠWright": 16043, "ĠMil": 6039, "br": 1612, "ĠKenn": 10787, "ĠStorage": 21505, "priv": 28941, "Ġwhitish": 47616, "Ġdownfall": 38914, "Ġproviding": 3258, "ĠProperty": 19575, "nery": 37918, "Ġpharaoh": 37292, "Ġinappropriate": 17599, "Ð¾ÑĤ": 43129, "Ġeucalyptus": 44863, "][": 4885, "Ġresorting": 35108, "ally": 682, "Ġquir": 28288, "Ġeffected": 37284, "ĠTeam": 12733, "Ġores": 42074, "Ġcomedy": 23399, "ĠDollar": 41847, "Ġsealed": 17659, "ol": 308, "ulumi": 9897, "Ġstag": 42655, "mere": 42596, "DIRECT": 42669, "Prim": 18739, "Ġstarted": 2841, "Ġrooft": 30003, "Ġsincerity": 43397, "orde": 32986, "Ġphag": 44980, "Ġcass": 22491, "lassical": 48150, "ensed": 8680, "aturation": 40989, "Ġnose": 8166, "umi": 27642, "Ġbeg": 1583, "ĠInflation": 46827, "chr": 23411, "ĠLaz": 33827, "Ġfortified": 22559, "Ġhesitate": 19506,
[...]
